{
  "version": "1.0",
  "truncation": null,
  "padding": null,
  "added_tokens": [
    {
      "id": 0,
      "content": "[UNK]",
      "single_word": false,
      "lstrip": false,
      "rstrip": false,
      "normalized": false,
      "special": true
    },
    {
      "id": 1,
      "content": "[PAD]",
      "single_word": false,
      "lstrip": false,
      "rstrip": false,
      "normalized": false,
      "special": true
    },
    {
      "id": 2,
      "content": "[BOS]",
      "single_word": false,
      "lstrip": false,
      "rstrip": false,
      "normalized": false,
      "special": true
    },
    {
      "id": 3,
      "content": "[EOS]",
      "single_word": false,
      "lstrip": false,
      "rstrip": false,
      "normalized": false,
      "special": true
    },
    {
      "id": 4,
      "content": "[MASK]",
      "single_word": false,
      "lstrip": false,
      "rstrip": false,
      "normalized": false,
      "special": true
    },
    {
      "id": 5,
      "content": "[BOS_Q]",
      "single_word": false,
      "lstrip": false,
      "rstrip": false,
      "normalized": false,
      "special": true
    },
    {
      "id": 6,
      "content": "[EOS_Q]",
      "single_word": false,
      "lstrip": false,
      "rstrip": false,
      "normalized": false,
      "special": true
    },
    {
      "id": 7,
      "content": "[BOS_A]",
      "single_word": false,
      "lstrip": false,
      "rstrip": false,
      "normalized": false,
      "special": true
    },
    {
      "id": 8,
      "content": "[BOS_E]",
      "single_word": false,
      "lstrip": false,
      "rstrip": false,
      "normalized": false,
      "special": true
    }
  ],
  "normalizer": null,
  "pre_tokenizer": {
    "type": "Metaspace",
    "replacement": " ",
    "prepend_scheme": "always",
    "split": true
  },
  "post_processor": null,
  "decoder": {
    "type": "BPEDecoder",
    "suffix": " "
  },
  "model": {
    "type": "Unigram",
    "unk_id": 0,
    "vocab": [
      [
        "[UNK]",
        0.0
      ],
      [
        "[PAD]",
        0.0
      ],
      [
        "[BOS]",
        0.0
      ],
      [
        "[EOS]",
        0.0
      ],
      [
        "[MASK]",
        0.0
      ],
      [
        "[BOS_Q]",
        0.0
      ],
      [
        "[EOS_Q]",
        0.0
      ],
      [
        "[BOS_A]",
        0.0
      ],
      [
        "[BOS_E]",
        0.0
      ],
      [
        " ",
        -2.1616261386995284
      ],
      [
        "의",
        -3.763688922620173
      ],
      [
        ",",
        -4.1126092657945215
      ],
      [
        "에",
        -4.1535413599431745
      ],
      [
        "이",
        -4.237069417222052
      ],
      [
        "을",
        -4.409237051216284
      ],
      [
        "를",
        -5.0435276092442916
      ],
      [
        "는",
        -5.050172796801444
      ],
      [
        "및",
        -5.105351592352159
      ],
      [
        "그",
        -5.111273262600706
      ],
      [
        "할",
        -5.196772802905443
      ],
      [
        " 수",
        -5.249972485309124
      ],
      [
        " 사건",
        -5.270916624597895
      ],
      [
        "한",
        -5.272280689385447
      ],
      [
        "가",
        -5.385572437223255
      ],
      [
        " 위",
        -5.428752967149364
      ],
      [
        "은",
        -5.4809029782755445
      ],
      [
        ":",
        -5.524918153790244
      ],
      [
        " 관한",
        -5.7742381375364165
      ],
      [
        " 또는",
        -5.77768941211154
      ],
      [
        "각",
        -5.813922640292999
      ],
      [
        "과",
        -5.8199899185249215
      ],
      [
        "인",
        -5.8311869971462436
      ],
      [
        " 같은",
        -5.834183020593361
      ],
      [
        "하여",
        -5.84294661477602
      ],
      [
        "법",
        -5.8433879718623984
      ],
      [
        " 대한",
        -5.867821175761321
      ],
      [
        "(",
        -5.8882439658389725
      ],
      [
        "로",
        -5.893572817649803
      ],
      [
        "으로",
        -5.952842379187217
      ],
      [
        " 따라",
        -5.973731445835506
      ],
      [
        " 따른",
        -5.980509168297717
      ],
      [
        " 있는",
        -6.010376694016832
      ],
      [
        ")",
        -6.018443902028135
      ],
      [
        " 1",
        -6.023464018749655
      ],
      [
        " 등",
        -6.0456754161851585
      ],
      [
        "하는",
        -6.06542709782914
      ],
      [
        "도",
        -6.08156675936757
      ],
      [
        "와",
        -6.126784440208949
      ],
      [
        " 경우",
        -6.130555921900196
      ],
      [
        "고",
        -6.204360535495242
      ],
      [
        "에서",
        -6.20858406782234
      ],
      [
        " 중",
        -6.238204017107217
      ],
      [
        " 한다.",
        -6.251974026260411
      ],
      [
        " 2",
        -6.265628145368012
      ],
      [
        "된",
        -6.288502555400537
      ],
      [
        "지",
        -6.367315319496653
      ],
      [
        " 같이",
        -6.377388830467439
      ],
      [
        " 공소외",
        -6.392177115621973
      ],
      [
        "하지",
        -6.401269570885367
      ],
      [
        " 대하여",
        -6.418851926281475
      ],
      [
        " 1.",
        -6.4390391529813655
      ],
      [
        " 피고인",
        -6.451122024418908
      ],
      [
        " 피고",
        -6.500809621070038
      ],
      [
        " 판결",
        -6.504718129458984
      ],
      [
        " 선고",
        -6.508759527499738
      ],
      [
        " 있다.",
        -6.516068195759406
      ],
      [
        " 소외",
        -6.537851116235585
      ],
      [
        " 이를",
        -6.608667480606172
      ],
      [
        "명:",
        -6.614348400495874
      ],
      [
        " 2.",
        -6.626027464464093
      ],
      [
        "하고",
        -6.680187642868297
      ],
      [
        " \"",
        -6.724742942704729
      ],
      [
        " 경우에는",
        -6.739012943442679
      ],
      [
        " 3",
        -6.746877914520441
      ],
      [
        "원",
        -6.771125358382005
      ],
      [
        " 원고",
        -6.791914969619704
      ],
      [
        " 의하여",
        -6.816093947563385
      ],
      [
        " 3.",
        -6.828333231525287
      ],
      [
        " 등을",
        -6.832630635587444
      ],
      [
        " 다음",
        -6.83336141075311
      ],
      [
        " 것으로",
        -6.837428667344017
      ],
      [
        " 없다.",
        -6.842894928880053
      ],
      [
        "·",
        -6.847032399797872
      ],
      [
        "자",
        -6.897761178315228
      ],
      [
        "하여야",
        -6.922406718587363
      ],
      [
        "시",
        -6.936472653289478
      ],
      [
        " 제1항",
        -6.940080265539278
      ],
      [
        " 후",
        -6.941763631874881
      ],
      [
        "하게",
        -6.949167659387943
      ],
      [
        " 해당",
        -6.9491971271796125
      ],
      [
        " 대법원",
        -6.950549882359464
      ],
      [
        "에게",
        -6.957730072518663
      ],
      [
        "기",
        -6.96262142831104
      ],
      [
        " 위하여",
        -6.9813133668117295
      ],
      [
        "상",
        -6.989423991578086
      ],
      [
        " 관하여",
        -6.992074992785977
      ],
      [
        "볼",
        -6.992840626887341
      ],
      [
        " 법률",
        -6.993303344948499
      ],
      [
        "나",
        -7.000525324253848
      ],
      [
        "\n",
        -7.02172633759179
      ],
      [
        " 등에",
        -7.031709954963219
      ],
      [
        " 구",
        -7.036130922360616
      ],
      [
        " 없는",
        -7.048745810927883
      ],
      [
        " 원고의",
        -7.0503042024503735
      ],
      [
        " 이유",
        -7.072634981398629
      ],
      [
        " 부분",
        -7.0733122125595465
      ],
      [
        "조",
        -7.101878066482911
      ],
      [
        "등의",
        -7.123087452684786
      ],
      [
        " 4.",
        -7.127856313364047
      ],
      [
        " 참조",
        -7.128383929898234
      ],
      [
        "하기",
        -7.136345883870382
      ],
      [
        " 하는",
        -7.143233730206278
      ],
      [
        "서",
        -7.159984836484172
      ],
      [
        " 정하는",
        -7.1622352670052205
      ],
      [
        "부터",
        -7.167473958145427
      ],
      [
        " 4",
        -7.173329384499873
      ],
      [
        " 관련",
        -7.184926057551346
      ],
      [
        "호",
        -7.217597424678617
      ],
      [
        "까지",
        -7.229462419728472
      ],
      [
        " 의한",
        -7.233510488694462
      ],
      [
        "하거나",
        -7.23807460661477
      ],
      [
        " 판단",
        -7.239178457831549
      ],
      [
        " 있다고",
        -7.256844464888339
      ],
      [
        "되어",
        -7.258581177158877
      ],
      [
        " 이에",
        -7.269066192091756
      ],
      [
        "수",
        -7.273709917113676
      ],
      [
        "(이하",
        -7.28171962886406
      ],
      [
        " 위한",
        -7.282710724665652
      ],
      [
        "만",
        -7.283783694187072
      ],
      [
        " 법령용어",
        -7.283965882458631
      ],
      [
        ".",
        -7.28546194849647
      ],
      [
        " 다른",
        -7.295640793688472
      ],
      [
        " 원고가",
        -7.301834355111474
      ],
      [
        " 것이",
        -7.3033867035212765
      ],
      [
        "이나",
        -7.312791423444073
      ],
      [
        " 원심판결",
        -7.313456862827875
      ],
      [
        " 해당하는",
        -7.316901609335591
      ],
      [
        "해",
        -7.317188213022312
      ],
      [
        " 12.",
        -7.324238300186325
      ],
      [
        "사",
        -7.324582726661564
      ],
      [
        " 것은",
        -7.331487520249274
      ],
      [
        "일",
        -7.344826940852824
      ],
      [
        "다",
        -7.349296841849981
      ],
      [
        " 규정에",
        -7.350069255904401
      ],
      [
        "될",
        -7.351216467273023
      ],
      [
        " 필요한",
        -7.361707865868617
      ],
      [
        " 규정하고",
        -7.38329533161267
      ],
      [
        " 5.",
        -7.392888093608152
      ],
      [
        " 사실을",
        -7.434435418931432
      ],
      [
        " 호의",
        -7.43532062944225
      ],
      [
        " 비추어",
        -7.452674766618799
      ],
      [
        " 것을",
        -7.455427030666879
      ],
      [
        " '",
        -7.457790379416938
      ],
      [
        "적",
        -7.458134597992155
      ],
      [
        " 「",
        -7.481767022459115
      ],
      [
        "되는",
        -7.481882043737681
      ],
      [
        " 받은",
        -7.485054102711942
      ],
      [
        " 이상",
        -7.488300976441364
      ],
      [
        " 가.",
        -7.4906509889410895
      ],
      [
        "다.",
        -7.491094800492567
      ],
      [
        " 6.",
        -7.506214654486381
      ],
      [
        " 본",
        -7.512380487306775
      ],
      [
        " 법원",
        -7.513807825325706
      ],
      [
        " 5",
        -7.526371366936326
      ],
      [
        "부",
        -7.533413655860439
      ],
      [
        "위와",
        -7.533838073379574
      ],
      [
        "되지",
        -7.537924462606577
      ],
      [
        " 모두",
        -7.54284680661547
      ],
      [
        " 따라서",
        -7.565511231594792
      ],
      [
        "다음과",
        -7.567055354205603
      ],
      [
        " 피고의",
        -7.570704637172493
      ],
      [
        " 전문",
        -7.572473526252232
      ],
      [
        " 7.",
        -7.573631819381355
      ],
      [
        " 시행",
        -7.57575842075955
      ],
      [
        " 것이다.",
        -7.577125517346509
      ],
      [
        " 시행령",
        -7.578354307994502
      ],
      [
        " 내지",
        -7.578767471943934
      ],
      [
        "장",
        -7.580141467862985
      ],
      [
        "한다.",
        -7.5878658834711565
      ],
      [
        " 유",
        -7.596118838732407
      ],
      [
        " 주",
        -7.597574076383077
      ],
      [
        " 당시",
        -7.599744287798693
      ],
      [
        " 피고가",
        -7.606243745144553
      ],
      [
        " 아니한",
        -7.619936025483986
      ],
      [
        " 기재",
        -7.629136596300166
      ],
      [
        "종류",
        -7.629647540490192
      ],
      [
        "하고,",
        -7.630837257917481
      ],
      [
        "면",
        -7.631585954898988
      ],
      [
        " 10.",
        -7.6415283251159085
      ],
      [
        "-",
        -7.65186970104423
      ],
      [
        " 제2조",
        -7.652110000634735
      ],
      [
        "게",
        -7.652615271696264
      ],
      [
        " 11.",
        -7.657015466825682
      ],
      [
        " 주식회사",
        -7.658604868794686
      ],
      [
        "성",
        -7.661638966276271
      ],
      [
        "),",
        -7.662716843651289
      ],
      [
        " 9.",
        -7.6632245121602764
      ],
      [
        "히",
        -7.665142568931444
      ],
      [
        " 이하",
        -7.669349727039975
      ],
      [
        "하였다.",
        -7.671361884232949
      ],
      [
        "이라",
        -7.673067662676058
      ],
      [
        " 판결,",
        -7.673625517338497
      ],
      [
        " 원고는",
        -7.674953532479433
      ],
      [
        " 나.",
        -7.674980214953218
      ],
      [
        " 피고는",
        -7.690853394531059
      ],
      [
        " 8.",
        -7.69260763931142
      ],
      [
        " 변경",
        -7.6934247132619085
      ],
      [
        "2",
        -7.697850061289145
      ],
      [
        "정",
        -7.698375877262674
      ],
      [
        "라",
        -7.699830299364356
      ],
      [
        " 금",
        -7.701349407957778
      ],
      [
        " 때",
        -7.703671397703237
      ],
      [
        " 생략",
        -7.710272486594823
      ],
      [
        " 말한다.",
        -7.71264713795947
      ],
      [
        " 때에는",
        -7.714510852387933
      ],
      [
        " 한다)",
        -7.718236482286944
      ],
      [
        "유형",
        -7.719953335357811
      ],
      [
        " 이러한",
        -7.721052837357211
      ],
      [
        "하도록",
        -7.722608519767185
      ],
      [
        " 주장",
        -7.723141125087894
      ],
      [
        " 시행한다.",
        -7.726601886416475
      ],
      [
        " 사항",
        -7.7426319078099475
      ],
      [
        " 있고,",
        -7.7472664305646415
      ],
      [
        "중",
        -7.747593131845953
      ],
      [
        "라고",
        -7.750260434300456
      ],
      [
        " 날부터",
        -7.751803245058326
      ],
      [
        "경",
        -7.755344614619627
      ],
      [
        " 지급",
        -7.759364237623542
      ],
      [
        "명",
        -7.761231661854664
      ],
      [
        " 있어",
        -7.763695915568647
      ],
      [
        " 1,",
        -7.766839920969991
      ],
      [
        " 인하여",
        -7.770141107002493
      ],
      [
        " 점",
        -7.772628376065157
      ],
      [
        "동",
        -7.773640093935892
      ],
      [
        " 갑",
        -7.774006614156029
      ],
      [
        " 없이",
        -7.774480453306676
      ],
      [
        " 점,",
        -7.781693914530148
      ],
      [
        " 별지",
        -7.7851229937472
      ],
      [
        "판례",
        -7.787809545932356
      ],
      [
        " 것",
        -7.79053333689872
      ],
      [
        " 제2항",
        -7.796668649786209
      ],
      [
        "하기로",
        -7.798773540802108
      ],
      [
        "조문",
        -7.798960265430962
      ],
      [
        " 부칙",
        -7.800212133082441
      ],
      [
        " 이유로",
        -7.800969527577809
      ],
      [
        " 인정할",
        -7.804778719483945
      ],
      [
        " 결정",
        -7.821398996870222
      ],
      [
        " 문",
        -7.821597359870442
      ],
      [
        "제",
        -7.822592255923297
      ],
      [
        " 동",
        -7.823555258214615
      ],
      [
        "용",
        -7.8320965750684355
      ],
      [
        "바와",
        -7.833835011324913
      ],
      [
        " 토지",
        -7.834194584572636
      ],
      [
        " 인한",
        -7.83546930200318
      ],
      [
        "로서",
        -7.837072967708087
      ],
      [
        "정의",
        -7.84028544758274
      ],
      [
        "주문과",
        -7.845076839739482
      ],
      [
        " 전",
        -7.857441711684604
      ],
      [
        " 어느",
        -7.861254683592046
      ],
      [
        " 관리",
        -7.871072704833971
      ],
      [
        " 정한",
        -7.874373709958576
      ],
      [
        " 있어서",
        -7.8770447249418
      ],
      [
        " 아니라",
        -7.877659457967818
      ],
      [
        "하면서",
        -7.880997734200816
      ],
      [
        " 6",
        -7.882977332432576
      ],
      [
        " 제1항에",
        -7.884403957057147
      ],
      [
        "비",
        -7.886297463642933
      ],
      [
        " 피심인",
        -7.890384039438466
      ],
      [
        " 사이에",
        -7.891109798440377
      ],
      [
        " 경우에",
        -7.895964636331016
      ],
      [
        " 여부",
        -7.89765835728217
      ],
      [
        " 판시사",
        -7.900470553216925
      ],
      [
        " 판결요지",
        -7.900526039033416
      ],
      [
        " 위법이",
        -7.902601344345484
      ],
      [
        "항:",
        -7.903437161197061
      ],
      [
        " 지정",
        -7.9067422405149586
      ],
      [
        " 이와",
        -7.908353188745325
      ],
      [
        " 설치",
        -7.913929002073992
      ],
      [
        "진",
        -7.920106957307608
      ],
      [
        "1",
        -7.927153170523102
      ],
      [
        " 사용",
        -7.92925639200376
      ],
      [
        " 대통령령으로",
        -7.930642569946578
      ],
      [
        " 운영",
        -7.932096749229121
      ],
      [
        " 다만,",
        -7.9324203309125405
      ],
      [
        "대",
        -7.934451054040828
      ],
      [
        " 전의",
        -7.940997295406966
      ],
      [
        "화",
        -7.941066490628179
      ],
      [
        " 사업",
        -7.94794705999591
      ],
      [
        " 내용",
        -7.948517182918822
      ],
      [
        "원을",
        -7.95142404498541
      ],
      [
        "하",
        -7.954778571358663
      ],
      [
        " 원심이",
        -7.958688797982063
      ],
      [
        " 원고에게",
        -7.962479724502604
      ],
      [
        "등",
        -7.967487776064456
      ],
      [
        " 지원",
        -7.968808774352368
      ],
      [
        " 나머지",
        -7.973702239159946
      ],
      [
        " 인정",
        -7.973861627675001
      ],
      [
        "리",
        -7.97988035585057
      ],
      [
        "3",
        -7.980569189495718
      ],
      [
        " 일부",
        -7.981384727596167
      ],
      [
        "일부를",
        -7.987716489297238
      ],
      [
        "하였고,",
        -7.9900598462207295
      ],
      [
        " 규정",
        -7.9943570009848415
      ],
      [
        "함으로써",
        -8.000155895518718
      ],
      [
        " 피고인이",
        -8.011624837406272
      ],
      [
        "소",
        -8.01204015620933
      ],
      [
        " 없다고",
        -8.014508825840105
      ],
      [
        " 대법관",
        -8.019190199585646
      ],
      [
        "구",
        -8.026511683269772
      ],
      [
        " 달리",
        -8.028845888790148
      ],
      [
        "금",
        -8.029515593363517
      ],
      [
        "판결한다.",
        -8.03643745002166
      ],
      [
        "로부터",
        -8.036709621108006
      ],
      [
        " 상고이유",
        -8.044150812605467
      ],
      [
        " 하더라도",
        -8.04527519344967
      ],
      [
        " 위반",
        -8.046647033159024
      ],
      [
        " 공포",
        -8.046720322751217
      ],
      [
        " 직접",
        -8.04825576742963
      ],
      [
        " 당해",
        -8.050524829645806
      ],
      [
        " 다시",
        -8.05446125419065
      ],
      [
        " 외",
        -8.054693627746397
      ],
      [
        "하였다고",
        -8.058058939857784
      ],
      [
        "세",
        -8.06209166650744
      ],
      [
        "항",
        -8.063573496280167
      ],
      [
        " 사실,",
        -8.063769068794832
      ],
      [
        " 의하면,",
        -8.064543133816493
      ],
      [
        " 아니",
        -8.06524875919103
      ],
      [
        " 각각",
        -8.065671474105619
      ],
      [
        "주",
        -8.067898470107764
      ],
      [
        "야",
        -8.071575572868756
      ],
      [
        " 생략)",
        -8.071833976223171
      ],
      [
        " 원심의",
        -8.076625411745438
      ],
      [
        "2.",
        -8.081459731712386
      ],
      [
        "으로서",
        -8.08578267050994
      ],
      [
        " 앞서",
        -8.086317172126897
      ],
      [
        " 연",
        -8.089088372189227
      ],
      [
        " 이후",
        -8.095640211726366
      ],
      [
        "어",
        -8.097754915015162
      ],
      [
        " 기간",
        -8.099042574111458
      ],
      [
        " 별표",
        -8.100704189837595
      ],
      [
        " 회사",
        -8.105991725424376
      ],
      [
        " 2,",
        -8.10782423980549
      ],
      [
        "행위를",
        -8.108236899992166
      ],
      [
        "상고를",
        -8.108631511567404
      ],
      [
        " 개정되기",
        -8.111261227413028
      ],
      [
        " 적용",
        -8.114100049259006
      ],
      [
        "선",
        -8.116164846947601
      ],
      [
        " 원심은",
        -8.12338160624044
      ],
      [
        " 불구하고",
        -8.127542356892025
      ],
      [
        " 제출",
        -8.127976656786286
      ],
      [
        " 되는",
        -8.129491657189515
      ],
      [
        " 관계",
        -8.12989767713507
      ],
      [
        "자는",
        -8.1324255550992
      ],
      [
        "이라고",
        -8.136133150470839
      ],
      [
        " 같다.",
        -8.137296346461056
      ],
      [
        " 밖에",
        -8.139350559518132
      ],
      [
        "아",
        -8.140249434393203
      ],
      [
        " 법률」",
        -8.141016376486858
      ],
      [
        " 사람",
        -8.143880251982184
      ],
      [
        "적인",
        -8.144687844820018
      ],
      [
        " 의하면",
        -8.148213780321099
      ],
      [
        " 행위",
        -8.14877583973757
      ],
      [
        "하려는",
        -8.153024808680684
      ],
      [
        " 대하여는",
        -8.153779664058936
      ],
      [
        "형",
        -8.154872226088893
      ],
      [
        "권",
        -8.158041782798202
      ],
      [
        " 제1",
        -8.161931341682362
      ],
      [
        " 또한",
        -8.164055150208148
      ],
      [
        "외의",
        -8.168360856141309
      ],
      [
        " 처분",
        -8.17397834611228
      ],
      [
        " 민법",
        -8.175976093290581
      ],
      [
        " 기각한다.",
        -8.184309309286718
      ],
      [
        "함에",
        -8.187825742153377
      ],
      [
        " 취소",
        -8.187971257902044
      ],
      [
        " 않은",
        -8.189388739496739
      ],
      [
        " 제공",
        -8.190431322021555
      ],
      [
        " 7",
        -8.191840543833399
      ],
      [
        " 일치",
        -8.192180872015742
      ],
      [
        " 주식",
        -8.194450217398034
      ],
      [
        " 결과",
        -8.198709941068623
      ],
      [
        "4",
        -8.199305663804134
      ],
      [
        "적으로",
        -8.200756246514873
      ],
      [
        " 있을",
        -8.20283570965266
      ],
      [
        " 제3조",
        -8.20635552961415
      ],
      [
        " 발생",
        -8.209368733590248
      ],
      [
        " 하나에",
        -8.21416920604653
      ],
      [
        "산",
        -8.214275767268564
      ],
      [
        " 목적으로",
        -8.215962002653251
      ],
      [
        " 영",
        -8.2173009092831
      ],
      [
        " 범위",
        -8.21804934663054
      ],
      [
        "해야",
        -8.218297009800004
      ],
      [
        " 제1심",
        -8.218404046289898
      ],
      [
        "한다는",
        -8.222152795546485
      ],
      [
        "전",
        -8.227408856880523
      ],
      [
        "당",
        -8.229876458926134
      ],
      [
        "단",
        -8.232563709861164
      ],
      [
        " 하고,",
        -8.238129258924832
      ],
      [
        " 사실",
        -8.241443729516599
      ],
      [
        " 개정한다.",
        -8.241464113831803
      ],
      [
        " 피해자",
        -8.245241652708957
      ],
      [
        "관",
        -8.24615303144861
      ],
      [
        "\"을",
        -8.246302673782507
      ],
      [
        "영향을",
        -8.247469167025557
      ],
      [
        " 아닌",
        -8.253057318804826
      ],
      [
        " 본다.",
        -8.256186358129044
      ],
      [
        " 사항을",
        -8.257994028099265
      ],
      [
        " 것이므로",
        -8.258691308607252
      ],
      [
        " 피고인의",
        -8.261647021553957
      ],
      [
        "에서는",
        -8.26572346422467
      ],
      [
        " 기준",
        -8.26644248547988
      ],
      [
        " 인정한",
        -8.271831881570215
      ],
      [
        "그러므로",
        -8.272519355431678
      ],
      [
        "간",
        -8.274439172686394
      ],
      [
        " 제한",
        -8.28202627542865
      ],
      [
        "별",
        -8.28513884223788
      ],
      [
        " 거래",
        -8.28561366184833
      ],
      [
        "분",
        -8.288422506851331
      ],
      [
        " 기록에",
        -8.289131999527745
      ],
      [
        " 소정의",
        -8.28915688414514
      ],
      [
        " 정도",
        -8.289800007745065
      ],
      [
        " 소속",
        -8.28986056329618
      ],
      [
        " 것)",
        -8.292282905751485
      ],
      [
        "3.",
        -8.294998091310998
      ],
      [
        " 회사의",
        -8.29609782167958
      ],
      [
        "으로부터",
        -8.298133160367103
      ],
      [
        " 신고",
        -8.298581997271032
      ],
      [
        " 것이고,",
        -8.300559593070984
      ],
      [
        "상의",
        -8.307904255469088
      ],
      [
        " 당사자",
        -8.313889086424997
      ],
      [
        " 통하여",
        -8.314902559911589
      ],
      [
        " 방법으로",
        -8.317168348812045
      ],
      [
        " 아래",
        -8.317295833672354
      ],
      [
        " 성립",
        -8.320347260063501
      ],
      [
        " 부담으로",
        -8.320971309528426
      ],
      [
        " 참조).",
        -8.321825016952015
      ],
      [
        " 업무",
        -8.324442919858805
      ],
      [
        " /",
        -8.324529126797517
      ],
      [
        " 변호사",
        -8.330121289128714
      ],
      [
        " 체결",
        -8.33510499428201
      ],
      [
        " 그러나",
        -8.336912744016447
      ],
      [
        " 특별한",
        -8.33802131446436
      ],
      [
        " 정당한",
        -8.338042114285878
      ],
      [
        " 이용",
        -8.339896671320698
      ],
      [
        "차",
        -8.341811528500727
      ],
      [
        " 등록",
        -8.342997306381578
      ],
      [
        "스",
        -8.34411695760297
      ],
      [
        "주장은",
        -8.344661189376303
      ],
      [
        " 일반",
        -8.344847635095304
      ],
      [
        "자의",
        -8.34808207812661
      ],
      [
        " 시장",
        -8.348114708554325
      ],
      [
        "우",
        -8.348139191248586
      ],
      [
        " 전에",
        -8.35113933393881
      ],
      [
        " 관여",
        -8.35134326119961
      ],
      [
        " 것이라고",
        -8.353012308567063
      ],
      [
        " 8",
        -8.35447775447473
      ],
      [
        " 경우,",
        -8.364500638723804
      ],
      [
        "실",
        -8.366227162327228
      ],
      [
        "업무를",
        -8.368430232196346
      ],
      [
        " 바",
        -8.37199045173502
      ],
      [
        " 있다",
        -8.373164072508194
      ],
      [
        " 신청",
        -8.373410273197232
      ],
      [
        " 사실이",
        -8.373753743756705
      ],
      [
        " 형법",
        -8.375230852944572
      ],
      [
        " 알",
        -8.375258481793388
      ],
      [
        " 이미",
        -8.375860201821782
      ],
      [
        " 건물",
        -8.378763474585153
      ],
      [
        " 확인",
        -8.384723696498579
      ],
      [
        " 기타",
        -8.386270846880896
      ],
      [
        " 계약",
        -8.386282207656633
      ],
      [
        " 등이",
        -8.388688801350266
      ],
      [
        "위",
        -8.389906121288968
      ],
      [
        "관리",
        -8.391039055934682
      ],
      [
        " 1의",
        -8.394150484237322
      ],
      [
        " 보면,",
        -8.394965281999161
      ],
      [
        "무",
        -8.396705636121583
      ],
      [
        "5",
        -8.397370632017306
      ],
      [
        " 보아야",
        -8.405044310355136
      ],
      [
        " 사정이",
        -8.405837461747256
      ],
      [
        " 해석",
        -8.409502400149812
      ],
      [
        " 작성",
        -8.411908575984032
      ],
      [
        " 약",
        -8.413326222162974
      ],
      [
        "한다고",
        -8.414055914468651
      ],
      [
        " 않는",
        -8.41564103642694
      ],
      [
        "\"으로",
        -8.41740958676973
      ],
      [
        "란",
        -8.42263518402967
      ],
      [
        " 피고인은",
        -8.423672186773763
      ],
      [
        " 하여금",
        -8.42509327836492
      ],
      [
        " 부과",
        -8.426621082245765
      ],
      [
        "식",
        -8.428829673730359
      ],
      [
        "받은",
        -8.429860674279395
      ],
      [
        " 판매",
        -8.437275214203428
      ],
      [
        " 합의",
        -8.43788168699204
      ],
      [
        " 부동산",
        -8.438211835800955
      ],
      [
        " 있는지",
        -8.438909843826806
      ],
      [
        "기간",
        -8.442313812266576
      ],
      [
        " 인정되는",
        -8.44344629991991
      ],
      [
        "영",
        -8.44359948300008
      ],
      [
        "\"로",
        -8.443686926560202
      ],
      [
        " 조사",
        -8.445117567171987
      ],
      [
        " 등)",
        -8.445286118092874
      ],
      [
        " 제2",
        -8.446848625536212
      ],
      [
        "행위는",
        -8.447663107748697
      ],
      [
        " 오해",
        -8.448358579496329
      ],
      [
        "종",
        -8.449703423133265
      ],
      [
        "거나",
        -8.452742697768745
      ],
      [
        " 거기에",
        -8.453143269093939
      ],
      [
        " 내",
        -8.45890049487221
      ],
      [
        " 총",
        -8.45947148933787
      ],
      [
        "국",
        -8.460383022894664
      ],
      [
        " 함께",
        -8.460834813911427
      ],
      [
        " 산정",
        -8.46233290630283
      ],
      [
        " 기준으로",
        -8.463342062495043
      ],
      [
        "더",
        -8.463646163354609
      ],
      [
        " 발생한",
        -8.46367161137903
      ],
      [
        " 피",
        -8.464101583220419
      ],
      [
        "점을",
        -8.464194396211031
      ],
      [
        " 입찰",
        -8.464232671161799
      ],
      [
        " 진술",
        -8.464425082829875
      ],
      [
        " 특정",
        -8.465708179395833
      ],
      [
        " (1)",
        -8.466092343779216
      ],
      [
        " 평가",
        -8.46655908927881
      ],
      [
        " 요청",
        -8.471206462193893
      ],
      [
        " 1이",
        -8.471699627696397
      ],
      [
        "(재판장)",
        -8.471882657070726
      ],
      [
        " 없고,",
        -8.472350375839326
      ],
      [
        " 그에",
        -8.473387822931947
      ],
      [
        " 국가",
        -8.474348371904906
      ],
      [
        " 본건",
        -8.475224904571801
      ],
      [
        "물",
        -8.477332483788565
      ],
      [
        " 날",
        -8.479637491861116
      ],
      [
        " 10",
        -8.479739716768506
      ],
      [
        " 위해",
        -8.48067710478515
      ],
      [
        "기재와",
        -8.48257052959776
      ],
      [
        "되고",
        -8.483420046256224
      ],
      [
        " 제3항",
        -8.48555821221274
      ],
      [
        " 있도록",
        -8.48763499720117
      ],
      [
        " 부담",
        -8.489185094113585
      ],
      [
        " 검사",
        -8.492822228960566
      ],
      [
        " 청구",
        -8.494935259443917
      ],
      [
        " 하고",
        -8.495407703020797
      ],
      [
        "보다",
        -8.495596353314829
      ],
      [
        "회",
        -8.495723373711266
      ],
      [
        "바에",
        -8.498102686503678
      ],
      [
        " 관련하여",
        -8.498334656650043
      ],
      [
        "자가",
        -8.500066189788482
      ],
      [
        " 개정",
        -8.501203186392807
      ],
      [
        " 환송",
        -8.501678341794983
      ],
      [
        "라는",
        -8.502233090563003
      ],
      [
        " 보호",
        -8.505768497945798
      ],
      [
        " 제1항,",
        -8.506187729824251
      ],
      [
        "계",
        -8.506882684895826
      ],
      [
        " 1은",
        -8.508801063808614
      ],
      [
        "하였다는",
        -8.509366192472653
      ],
      [
        " 취득",
        -8.509452874444076
      ],
      [
        "4.",
        -8.510768712192604
      ],
      [
        " 제2항에",
        -8.51245396524034
      ],
      [
        " 법령",
        -8.51369671021678
      ],
      [
        "시설",
        -8.513748742896453
      ],
      [
        "사업",
        -8.51607239148119
      ],
      [
        " 허가",
        -8.518064118249898
      ],
      [
        " 고려하여",
        -8.519672135738844
      ],
      [
        " 통해",
        -8.522043650204507
      ],
      [
        " 제1호",
        -8.522627786213677
      ],
      [
        "되어야",
        -8.523886333745654
      ],
      [
        " 피심인은",
        -8.526282517401434
      ],
      [
        "뿐만",
        -8.528020285936293
      ],
      [
        "건",
        -8.528098425828146
      ],
      [
        " (2)",
        -8.528731122955065
      ],
      [
        "의견으로",
        -8.530562277863428
      ],
      [
        " 이상의",
        -8.532974455590727
      ],
      [
        "치",
        -8.536318011818985
      ],
      [
        " 2009.",
        -8.536372399045431
      ],
      [
        " 채",
        -8.536378219344954
      ],
      [
        " 것으로서",
        -8.536491148588823
      ],
      [
        "/",
        -8.536643115444672
      ],
      [
        " 있다는",
        -8.536904425257879
      ],
      [
        " 조정",
        -8.538649322095043
      ],
      [
        " 결론",
        -8.539921976479125
      ],
      [
        "법리를",
        -8.54077789914878
      ],
      [
        " 전체",
        -8.541152122271654
      ],
      [
        " 이내에",
        -8.543124617508191
      ],
      [
        " 등으로",
        -8.54341036095099
      ],
      [
        "재",
        -8.546366702866191
      ],
      [
        "하면",
        -8.549738281472456
      ],
      [
        " 2008.",
        -8.550421580673094
      ],
      [
        " 3,",
        -8.552550397291407
      ],
      [
        "데",
        -8.553067031697639
      ],
      [
        "\"를",
        -8.553966240427348
      ],
      [
        " 양도",
        -8.555262022595876
      ],
      [
        " 한국",
        -8.55678053242592
      ],
      [
        " 표시",
        -8.557469875784845
      ],
      [
        " 과징금",
        -8.560462712541858
      ],
      [
        " 취지",
        -8.562686559810233
      ],
      [
        " 제7조",
        -8.56481521183691
      ],
      [
        " 이행",
        -8.566133232349625
      ],
      [
        "6",
        -8.571111240005402
      ],
      [
        " 파기하고",
        -8.572176957661187
      ],
      [
        " 설립",
        -8.575446126099266
      ],
      [
        " 수입",
        -8.577474456657471
      ],
      [
        " 변론",
        -8.579224324243759
      ],
      [
        " 제",
        -8.583844485908442
      ],
      [
        " 민사",
        -8.58485135882912
      ],
      [
        " 제4조",
        -8.587224062290346
      ],
      [
        "제1조(시행일)",
        -8.588038096006137
      ],
      [
        "여부를",
        -8.59092505451007
      ],
      [
        " 것이므로,",
        -8.592334269294543
      ],
      [
        " 승인",
        -8.595417722579073
      ],
      [
        " 점에",
        -8.597805469509867
      ],
      [
        " 영업",
        -8.598187627615644
      ],
      [
        "업",
        -8.598794221529566
      ],
      [
        " 있지",
        -8.60041632816331
      ],
      [
        " 피고에게",
        -8.601600822688217
      ],
      [
        " 제5조",
        -8.604760983780775
      ],
      [
        "규정을",
        -8.60719661949907
      ],
      [
        " 한편",
        -8.61127799291964
      ],
      [
        "증",
        -8.612102587098434
      ],
      [
        " 추가",
        -8.613416660317169
      ],
      [
        " 상고이유를",
        -8.614349772188545
      ],
      [
        " 받아",
        -8.6163062452452
      ],
      [
        " 아니하고",
        -8.620232190243012
      ],
      [
        " 해당한다고",
        -8.620850435227029
      ],
      [
        "청구를",
        -8.622529551585174
      ],
      [
        "계약을",
        -8.62382470998172
      ],
      [
        " 필요",
        -8.627121445813753
      ],
      [
        "내용을",
        -8.627229396706596
      ],
      [
        " 삭제",
        -8.627948171222423
      ],
      [
        " 상고인",
        -8.630363571576353
      ],
      [
        " 없으므로",
        -8.631528598844444
      ],
      [
        "피심인의",
        -8.633230950274966
      ],
      [
        " 대",
        -8.634658117671364
      ],
      [
        " 구성",
        -8.635011688049417
      ],
      [
        "1.",
        -8.636698792236626
      ],
      [
        " 9",
        -8.63685820543414
      ],
      [
        " 2007.",
        -8.638273053128932
      ],
      [
        " 수립",
        -8.638526916264084
      ],
      [
        " 공사",
        -8.638680316050332
      ],
      [
        " 보고",
        -8.640054002422412
      ],
      [
        "상고비용은",
        -8.642220831680937
      ],
      [
        " 있는바,",
        -8.644675947347043
      ],
      [
        " 지역",
        -8.644919367369662
      ],
      [
        " 원심",
        -8.645173271997107
      ],
      [
        " 소",
        -8.646327107798214
      ],
      [
        " 수행",
        -8.648338419745158
      ],
      [
        " 제6조",
        -8.649035030725242
      ],
      [
        " 방법",
        -8.64961626794042
      ],
      [
        "7",
        -8.651080618197435
      ],
      [
        "에도",
        -8.651198838565257
      ],
      [
        " 않고",
        -8.654458346387704
      ],
      [
        "만을",
        -8.655086242318234
      ],
      [
        " 계속",
        -8.655536671780107
      ],
      [
        "자신의",
        -8.658711429525892
      ],
      [
        " 전부",
        -8.659885584304227
      ],
      [
        " 2010.",
        -8.660522374662538
      ],
      [
        " 있으며,",
        -8.664292857763444
      ],
      [
        " 사항은",
        -8.664705034250382
      ],
      [
        "후",
        -8.667341562260976
      ],
      [
        "이라는",
        -8.66747206758365
      ],
      [
        " 아니하는",
        -8.669196194046265
      ],
      [
        " 주택",
        -8.669672935443334
      ],
      [
        "점",
        -8.670309907073516
      ],
      [
        " 관련된",
        -8.671343596242387
      ],
      [
        "이다.",
        -8.671504662803281
      ],
      [
        " 뿐",
        -8.671686444117942
      ],
      [
        " 본문",
        -8.672210984184495
      ],
      [
        "8",
        -8.672516657612867
      ],
      [
        " 결국",
        -8.672776964229111
      ],
      [
        "장은",
        -8.676923561970444
      ],
      [
        " 종전의",
        -8.679243386616665
      ],
      [
        " 김",
        -8.679594989606116
      ],
      [
        " 제조",
        -8.679635517525613
      ],
      [
        " 원고,",
        -8.683714215149013
      ],
      [
        " 처리",
        -8.68447003425181
      ],
      [
        " 의무가",
        -8.687063190520654
      ],
      [
        " 시설",
        -8.687968265429507
      ],
      [
        " 대통령령",
        -8.688031200498637
      ],
      [
        " 관하여는",
        -8.688708938939527
      ],
      [
        " 아무런",
        -8.690083736623839
      ],
      [
        " 나아가",
        -8.701165179197492
      ],
      [
        " 대해",
        -8.702916692223221
      ],
      [
        "사실은",
        -8.703528627093103
      ],
      [
        " 교육",
        -8.704043242457079
      ],
      [
        " 정한다.",
        -8.706229339463302
      ],
      [
        " 보기",
        -8.707872859935376
      ],
      [
        "영은",
        -8.708194495453675
      ],
      [
        " 2006.",
        -8.708220465853177
      ],
      [
        "(소송대리인",
        -8.708390851542033
      ],
      [
        " 아파트",
        -8.709205233848646
      ],
      [
        " 없어",
        -8.709350515797427
      ],
      [
        " 시행령」",
        -8.711532676528819
      ],
      [
        " 되어",
        -8.713042677000423
      ],
      [
        "유",
        -8.713178573744777
      ],
      [
        " 없다",
        -8.713803479433384
      ],
      [
        " 범행",
        -8.71454523834479
      ],
      [
        " 유지",
        -8.715305235463767
      ],
      [
        " 광고",
        -8.71595416945778
      ],
      [
        "원고들의",
        -8.716340775186412
      ],
      [
        "밖의",
        -8.717629285669517
      ],
      [
        " 의미",
        -8.71834728913289
      ],
      [
        "석",
        -8.72138138860113
      ],
      [
        " 2011.",
        -8.722083490947076
      ],
      [
        " 법인",
        -8.722660881199225
      ],
      [
        "」",
        -8.723843411693016
      ],
      [
        " 있으므로",
        -8.72519788116818
      ],
      [
        "급",
        -8.725731042685762
      ],
      [
        " 이전",
        -8.72706730104172
      ],
      [
        " 안",
        -8.727070811647467
      ],
      [
        "자를",
        -8.729975782484251
      ],
      [
        " 있고",
        -8.730211791167203
      ],
      [
        " 피고,",
        -8.730958020589304
      ],
      [
        " 기존",
        -8.734433866325666
      ],
      [
        " 관할",
        -8.734787772588518
      ],
      [
        "그런데",
        -8.734815960585308
      ],
      [
        " 종합하여",
        -8.736370303294413
      ],
      [
        " 주문",
        -8.736831538748191
      ],
      [
        " 정하여",
        -8.737131719232927
      ],
      [
        " 건축",
        -8.738021986879737
      ],
      [
        " 피상고인",
        -8.739292723334096
      ],
      [
        " 판시",
        -8.740851674817574
      ],
      [
        " 제8조",
        -8.741301078047117
      ],
      [
        " 허용",
        -8.742371770581148
      ],
      [
        " 공급",
        -8.743266452190136
      ],
      [
        " 자가",
        -8.744337122582106
      ],
      [
        " 합계",
        -8.746051480615654
      ],
      [
        "이익을",
        -8.747143629824823
      ],
      [
        " 제2항,",
        -8.748112789801317
      ],
      [
        " 확정",
        -8.748639653104203
      ],
      [
        " 31.",
        -8.749123050803362
      ],
      [
        " 상품",
        -8.749977962165751
      ],
      [
        " 부분에",
        -8.750057339655173
      ],
      [
        " 대상",
        -8.750703815951509
      ],
      [
        "여",
        -8.751577605694825
      ],
      [
        " 토지의",
        -8.75184272223265
      ],
      [
        " 전제로",
        -8.7532203563853
      ],
      [
        "청",
        -8.753999328791899
      ],
      [
        "체",
        -8.755418223340474
      ],
      [
        "원,",
        -8.756117933554409
      ],
      [
        "천",
        -8.75663146048982
      ],
      [
        " 동안",
        -8.757205141333515
      ],
      [
        "누",
        -8.757290465321182
      ],
      [
        "들이",
        -8.758050614781293
      ],
      [
        " 2005.",
        -8.758564536610322
      ],
      [
        " 신",
        -8.75927209300231
      ],
      [
        " 참조),",
        -8.759932828467367
      ],
      [
        "지원",
        -8.760540873090829
      ],
      [
        " 논지는",
        -8.761306111488242
      ],
      [
        " 1)",
        -8.763152902825905
      ],
      [
        "9",
        -8.765700509115359
      ],
      [
        " 안건",
        -8.7668166186056
      ],
      [
        "산업",
        -8.76710256097264
      ],
      [
        " 모든",
        -8.76794189429912
      ],
      [
        " 행사",
        -8.76936752614542
      ],
      [
        "법은",
        -8.769745625262036
      ],
      [
        "환",
        -8.771224174977146
      ],
      [
        " 고시",
        -8.771945969151568
      ],
      [
        "문",
        -8.772334792447522
      ],
      [
        " 실제",
        -8.775988738809918
      ],
      [
        "자에게",
        -8.776450150232119
      ],
      [
        " 서류",
        -8.776774400121175
      ],
      [
        " 거쳐",
        -8.776926504483376
      ],
      [
        " 진행",
        -8.778861441223578
      ],
      [
        " 28.",
        -8.779337705772237
      ],
      [
        " 법리",
        -8.780451053204729
      ],
      [
        "조치를",
        -8.781040452065943
      ],
      [
        "공",
        -8.781273122843299
      ],
      [
        " 기관",
        -8.782325685090836
      ],
      [
        "행",
        -8.782457616688966
      ],
      [
        " 양",
        -8.782813379979384
      ],
      [
        "평",
        -8.783744452090518
      ],
      [
        " 규정한",
        -8.784506335157124
      ],
      [
        " 제9조",
        -8.784538177422437
      ],
      [
        " 현재",
        -8.78460078382834
      ],
      [
        "된다고",
        -8.785092011379623
      ],
      [
        " 사례",
        -8.787314002516258
      ],
      [
        "허가를",
        -8.787810941182139
      ],
      [
        " 국내",
        -8.788373164835955
      ],
      [
        " 원고와",
        -8.788875832911618
      ],
      [
        "신",
        -8.79089568759967
      ],
      [
        " 개발",
        -8.792226001959213
      ],
      [
        " 개정)",
        -8.794743402292344
      ],
      [
        "보",
        -8.794763350440993
      ],
      [
        " 요구",
        -8.79664654683796
      ],
      [
        "되었다고",
        -8.797223197393443
      ],
      [
        "군",
        -8.798678481983073
      ],
      [
        "원의",
        -8.798856750444108
      ],
      [
        " 포함",
        -8.799476368326276
      ],
      [
        " 2012.",
        -8.801969250315373
      ],
      [
        " 정보",
        -8.80240045347136
      ],
      [
        " 권리",
        -8.803233815920432
      ],
      [
        " 주장하는",
        -8.803314642894202
      ],
      [
        " 그대로",
        -8.809294347929258
      ],
      [
        " 사유가",
        -8.811767854318948
      ],
      [
        " 채권",
        -8.81320342353327
      ],
      [
        " 서울",
        -8.814552790214876
      ],
      [
        " 단서",
        -8.814965279247495
      ],
      [
        " 해당하지",
        -8.815838683849087
      ],
      [
        " 공소사실",
        -8.816043293892603
      ],
      [
        "(다른",
        -8.816182420404493
      ],
      [
        "절차를",
        -8.818843370633806
      ],
      [
        " 자료",
        -8.81889411900735
      ],
      [
        "직",
        -8.819163344640096
      ],
      [
        "공사",
        -8.821355800988409
      ],
      [
        "질",
        -8.823210672696804
      ],
      [
        " 30.",
        -8.824945534915999
      ],
      [
        "%",
        -8.826428969272031
      ],
      [
        "심",
        -8.827049359199078
      ],
      [
        " 동일한",
        -8.827749431866282
      ],
      [
        " 전단",
        -8.828529812504614
      ],
      [
        " 명의로",
        -8.828621486346757
      ],
      [
        "액",
        -8.83113716149772
      ],
      [
        " 그러한",
        -8.832734289274526
      ],
      [
        " 손해",
        -8.832960149623512
      ],
      [
        " 이루어진",
        -8.833691237079066
      ],
      [
        " 구하는",
        -8.833920769767012
      ],
      [
        " 2의",
        -8.835897871792273
      ],
      [
        " 사고",
        -8.836554156568326
      ],
      [
        "법령의",
        -8.837194527922488
      ],
      [
        " 목적",
        -8.837955455043684
      ],
      [
        " ○○",
        -8.838492851311633
      ],
      [
        "합",
        -8.839074379096491
      ],
      [
        " 말",
        -8.839146300934406
      ],
      [
        " 한다고",
        -8.840163241256155
      ],
      [
        " 청구취지",
        -8.840217387976582
      ],
      [
        "(주심)",
        -8.841344810531803
      ],
      [
        "2)",
        -8.841884825247297
      ],
      [
        "우려가",
        -8.841980713532118
      ],
      [
        "미",
        -8.843696912875156
      ],
      [
        " 토지를",
        -8.845073971270793
      ],
      [
        " 자동차",
        -8.846200720338551
      ],
      [
        " 존재",
        -8.848978766074417
      ],
      [
        " 2003.",
        -8.850170244746346
      ],
      [
        "의무를",
        -8.85062689986111
      ],
      [
        "안",
        -8.85347370032333
      ],
      [
        " 2004.",
        -8.85383380616997
      ],
      [
        " 제1심판결",
        -8.855269811943074
      ],
      [
        " 경우에도",
        -8.860868246062655
      ],
      [
        "연",
        -8.861141313573937
      ],
      [
        " 위탁",
        -8.862024187780754
      ],
      [
        " 여러",
        -8.862427655122815
      ],
      [
        " 토지에",
        -8.862659948648732
      ],
      [
        " 13.",
        -8.86463938882095
      ],
      [
        " 가격",
        -8.864929186070297
      ],
      [
        " 제기",
        -8.867139910777531
      ],
      [
        " 26.",
        -8.870132268524799
      ],
      [
        "기준",
        -8.871296940019283
      ],
      [
        " 취지로",
        -8.872088975274615
      ],
      [
        " 4,",
        -8.873267195130687
      ],
      [
        " 내에서",
        -8.875267216751094
      ],
      [
        " 금액",
        -8.875817192068148
      ],
      [
        " 판단한다.",
        -8.87681985073967
      ],
      [
        "양",
        -8.87774669792992
      ],
      [
        "외",
        -8.879095545754575
      ],
      [
        "나.",
        -8.880111201114437
      ],
      [
        "하며,",
        -8.880564796221412
      ],
      [
        "그와",
        -8.881682766364793
      ],
      [
        "10",
        -8.881693953501859
      ],
      [
        " 함은",
        -8.882102943159135
      ],
      [
        " 14.",
        -8.883921233538736
      ],
      [
        " 즉",
        -8.885188394153676
      ],
      [
        "부분은",
        -8.885314915252966
      ],
      [
        " 제3",
        -8.88772392722424
      ],
      [
        " 보아",
        -8.888007826374457
      ],
      [
        " 1년",
        -8.888086507878626
      ],
      [
        " 형사소송법",
        -8.888405411360349
      ],
      [
        " 민사소송법",
        -8.888994401234353
      ],
      [
        " 협의",
        -8.891791927672559
      ],
      [
        "\"",
        -8.892072830745537
      ],
      [
        "호로",
        -8.89500754358271
      ],
      [
        " 구체적인",
        -8.895478189766155
      ],
      [
        " 실시",
        -8.895698947782154
      ],
      [
        " 비",
        -8.896963205377503
      ],
      [
        "또",
        -8.898419833647761
      ],
      [
        "5.",
        -8.898537951816493
      ],
      [
        " 2013.",
        -8.89993328398876
      ],
      [
        " 그렇다면",
        -8.89996756872357
      ],
      [
        " 2)",
        -8.904290804436327
      ],
      [
        " 위임",
        -8.904314849571163
      ],
      [
        "사정을",
        -8.904589831598395
      ],
      [
        " 받을",
        -8.905089211216408
      ],
      [
        " 제1항의",
        -8.906073904233116
      ],
      [
        " 23.",
        -8.906829603149365
      ],
      [
        " 27.",
        -8.907167317684836
      ],
      [
        "하였을",
        -8.907243903415168
      ],
      [
        " 변제",
        -8.907358965279204
      ],
      [
        " 금액을",
        -8.909509806664664
      ],
      [
        " 부칙(",
        -8.910058178758016
      ],
      [
        " 상대로",
        -8.910339434016262
      ],
      [
        " 적용한다.",
        -8.912101296575477
      ],
      [
        " 사망",
        -8.912216096152108
      ],
      [
        " 甲",
        -8.912625779726037
      ],
      [
        " 도로",
        -8.913502082907609
      ],
      [
        " 개인",
        -8.913724295577609
      ],
      [
        " 소유",
        -8.915039127181473
      ],
      [
        " 상고",
        -8.916841613874183
      ],
      [
        "창",
        -8.917018380367912
      ],
      [
        "출",
        -8.92080577046513
      ],
      [
        " 사실상",
        -8.92161300600889
      ],
      [
        " 취득한",
        -8.922128251857586
      ],
      [
        "봄이",
        -8.922794406897085
      ],
      [
        " 증인",
        -8.925095563598918
      ],
      [
        "교",
        -8.925356655507645
      ],
      [
        "노",
        -8.927002061408361
      ],
      [
        "방",
        -8.92795721101852
      ],
      [
        "손해를",
        -8.928034865722827
      ],
      [
        " 2가",
        -8.92913106188191
      ],
      [
        " 위반하여",
        -8.93001672220694
      ],
      [
        "사이의",
        -8.931181357393744
      ],
      [
        " 22.",
        -8.931482670316296
      ],
      [
        "하여서는",
        -8.932690364370165
      ],
      [
        " 그리고",
        -8.935742864190754
      ],
      [
        "포",
        -8.93712088855266
      ],
      [
        " 29.",
        -8.940851004450904
      ],
      [
        " 집행",
        -8.941032703545643
      ],
      [
        " 없다는",
        -8.941096517080622
      ],
      [
        "신청을",
        -8.941311051245378
      ],
      [
        "개정규정은",
        -8.943196476784673
      ],
      [
        "들의",
        -8.943380467873917
      ],
      [
        " 24.",
        -8.944566719737072
      ],
      [
        " 회사가",
        -8.945824753558437
      ],
      [
        " 선박",
        -8.946030540946278
      ],
      [
        " 조치",
        -8.946628222585453
      ],
      [
        " 역시",
        -8.946767973792625
      ],
      [
        "\"이라",
        -8.946769010440816
      ],
      [
        "계약",
        -8.948013510130512
      ],
      [
        " 살피건대,",
        -8.949765199261602
      ],
      [
        " 11",
        -8.95109391341574
      ],
      [
        "내용의",
        -8.951443057668936
      ],
      [
        "사업을",
        -8.951498717334712
      ],
      [
        " 연장",
        -8.951790665232913
      ],
      [
        "거래",
        -8.95339908624339
      ],
      [
        " 제출한",
        -8.953500774000599
      ],
      [
        " 2002.",
        -8.953974661966786
      ],
      [
        " 시행규칙",
        -8.954907657048638
      ],
      [
        "6.",
        -8.956007123064794
      ],
      [
        " 만한",
        -8.9570565252583
      ],
      [
        " 위법",
        -8.957906471605284
      ],
      [
        " 있으므로,",
        -8.959672215396262
      ],
      [
        " 된다.",
        -8.960408651134017
      ],
      [
        " 상당한",
        -8.96275028954584
      ],
      [
        "대상",
        -8.963491465410005
      ],
      [
        " 소송대리인",
        -8.964125618229412
      ],
      [
        " 초과",
        -8.964351922048246
      ],
      [
        " 군수",
        -8.964587796163308
      ],
      [
        " 살펴보면,",
        -8.964882262891095
      ],
      [
        "지역",
        -8.96578594660321
      ],
      [
        " 사유",
        -8.966340394287926
      ],
      [
        " 제4항",
        -8.967728324929023
      ],
      [
        " 수긍",
        -8.968561778816351
      ],
      [
        " 재",
        -8.9688447040517
      ],
      [
        "두",
        -8.970248518151072
      ],
      [
        " 약정",
        -8.972042833066874
      ],
      [
        " 12",
        -8.973155351382358
      ],
      [
        " 증거가",
        -8.973284967503302
      ],
      [
        " 선정",
        -8.973456084042212
      ],
      [
        " 우선",
        -8.973710791445265
      ],
      [
        "청구는",
        -8.974819803016855
      ],
      [
        " 때,",
        -8.974961890679321
      ],
      [
        " 건축물",
        -8.975539367408098
      ],
      [
        " 제2호",
        -8.976114240505952
      ],
      [
        " 두",
        -8.976319975567709
      ],
      [
        " 같다)",
        -8.97725586722938
      ],
      [
        "마",
        -8.978242910146024
      ],
      [
        " 가지고",
        -8.980719560094666
      ],
      [
        " 있던",
        -8.980810922652406
      ],
      [
        " 25.",
        -8.98249509643898
      ],
      [
        "되기",
        -8.98266834252794
      ],
      [
        " 통지",
        -8.98276939026502
      ],
      [
        " 제19조",
        -8.984258867956402
      ],
      [
        " 2015.",
        -8.98566761170658
      ],
      [
        " 침해",
        -8.985841389291782
      ],
      [
        " 분할",
        -8.98695092558875
      ],
      [
        " 납부",
        -8.988286525413342
      ],
      [
        " 제12조",
        -8.988623597709136
      ],
      [
        "7.",
        -8.98877472962744
      ],
      [
        " 포함한다)",
        -8.989057254495311
      ],
      [
        " 대상이",
        -8.989713934322051
      ],
      [
        " 한편,",
        -8.991062255545103
      ],
      [
        " 하며,",
        -8.992422875664086
      ],
      [
        "이고,",
        -8.99256333617523
      ],
      [
        " 것에",
        -8.99288814333882
      ],
      [
        "법」",
        -8.99323507484366
      ],
      [
        " 발급",
        -8.994854206888581
      ],
      [
        "자에",
        -8.995011574725957
      ],
      [
        " 대출",
        -8.99555814869503
      ],
      [
        " 통보",
        -8.99588479333866
      ],
      [
        " 법리오해",
        -8.998012078999523
      ],
      [
        " 2014.",
        -8.99819019513297
      ],
      [
        "요건을",
        -8.998350678023527
      ],
      [
        " 절차",
        -8.999919974642507
      ],
      [
        "가.",
        -9.000837175744707
      ],
      [
        " 규칙",
        -9.001195511372071
      ],
      [
        "교육",
        -9.0012143243005
      ],
      [
        "조사",
        -9.00287242303945
      ],
      [
        " 근무",
        -9.0033487105628
      ],
      [
        " 보상",
        -9.003777065836214
      ],
      [
        " 부동산에",
        -9.005740947970837
      ],
      [
        " 판사",
        -9.00692744487793
      ],
      [
        "운",
        -9.00718199253058
      ],
      [
        " 반환",
        -9.007326111305716
      ],
      [
        "판단은",
        -9.007352175403202
      ],
      [
        " 물품",
        -9.008535081896836
      ],
      [
        "민",
        -9.00913141382023
      ],
      [
        "들",
        -9.011362245632569
      ],
      [
        " 부당한",
        -9.015651733225724
      ],
      [
        " 조합원",
        -9.015760624528262
      ],
      [
        "내",
        -9.016526493267198
      ],
      [
        " 기술",
        -9.016765085592164
      ],
      [
        " 경과한",
        -9.016909284010334
      ],
      [
        " 내에",
        -9.018152075311177
      ],
      [
        "트",
        -9.018794649862288
      ],
      [
        " 15.",
        -9.021930034618498
      ],
      [
        " 준",
        -9.02404579433172
      ],
      [
        " 인정하는",
        -9.024701268076791
      ],
      [
        " 기각하고",
        -9.025224237657536
      ],
      [
        "업무",
        -9.026523965376096
      ],
      [
        "현",
        -9.02794923979704
      ],
      [
        "하고자",
        -9.029338659955824
      ],
      [
        " 개인정보",
        -9.034443837878005
      ],
      [
        " 원고에",
        -9.035493401077698
      ],
      [
        " 속하는",
        -9.035540917548255
      ],
      [
        " 여부에",
        -9.03713729646956
      ],
      [
        "건설",
        -9.037150492104612
      ],
      [
        " 효력이",
        -9.037195447672351
      ],
      [
        ")를",
        -9.0374962079545
      ],
      [
        " 유죄",
        -9.03797787020934
      ],
      [
        " 근거",
        -9.03873376133173
      ],
      [
        " 등기",
        -9.03943459736266
      ],
      [
        "하였으며,",
        -9.040261879581008
      ],
      [
        " 해제",
        -9.040517045990512
      ],
      [
        " 경영",
        -9.041504927040684
      ],
      [
        "11",
        -9.04208109095248
      ],
      [
        " 질의요지",
        -9.042295426871371
      ],
      [
        " 1월",
        -9.046400906302186
      ],
      [
        " 일정한",
        -9.046765699109075
      ],
      [
        " 안전",
        -9.046818644820384
      ],
      [
        " 지급할",
        -9.047424285506157
      ],
      [
        " 매수",
        -9.04887326462764
      ],
      [
        " 잘못",
        -9.048939098494678
      ],
      [
        "태",
        -9.0512950811461
      ],
      [
        " 과정에서",
        -9.051388396659831
      ],
      [
        " 2016.",
        -9.051624090101315
      ],
      [
        " 아니한다.",
        -9.054599554454644
      ],
      [
        "기관",
        -9.05502414632268
      ],
      [
        "1)",
        -9.055653429045332
      ],
      [
        "부분을",
        -9.055882783813043
      ],
      [
        " 받고",
        -9.057177423266165
      ],
      [
        "적법하게",
        -9.058502474484946
      ],
      [
        " 의무",
        -9.05933750548374
      ],
      [
        " 라.",
        -9.0614097645512
      ],
      [
        "하므로",
        -9.065755633204269
      ],
      [
        " 제4",
        -9.066221416730976
      ],
      [
        " (3)",
        -9.067448325721006
      ],
      [
        " 있었던",
        -9.0676248385753
      ],
      [
        "신고를",
        -9.06877054672267
      ],
      [
        " 동의",
        -9.069807110849895
      ],
      [
        "필요가",
        -9.071857519854674
      ],
      [
        " 원고들이",
        -9.072051483018951
      ],
      [
        " 참여",
        -9.072062220084137
      ],
      [
        " 생산",
        -9.073073104644484
      ],
      [
        " 지방자치단체의",
        -9.073078823745911
      ],
      [
        "판",
        -9.074408947671996
      ],
      [
        " 회답",
        -9.074606264300655
      ],
      [
        "하였으나",
        -9.074805892692272
      ],
      [
        " 개정규정",
        -9.075787723428496
      ],
      [
        ")에",
        -9.076091386747033
      ],
      [
        " 명의의",
        -9.077097240658636
      ],
      [
        " 대해서는",
        -9.077224935955089
      ],
      [
        " 체결한",
        -9.077384521305376
      ],
      [
        " 있어서는",
        -9.07900983556634
      ],
      [
        " 공무원",
        -9.080724256669566
      ],
      [
        " 피해",
        -9.08183361042498
      ],
      [
        " 받지",
        -9.08386111407208
      ],
      [
        "12",
        -9.085235748320986
      ],
      [
        "허가",
        -9.08635961249256
      ],
      [
        " 미친",
        -9.086656774488926
      ],
      [
        " 연구",
        -9.086869183207996
      ],
      [
        " 규칙은",
        -9.087225073614627
      ],
      [
        " 제품",
        -9.087803559357493
      ],
      [
        " 상호",
        -9.087995781993447
      ],
      [
        "신고",
        -9.088982934757228
      ],
      [
        ")의",
        -9.089928633810622
      ],
      [
        " 형사",
        -9.090441047512684
      ],
      [
        " 어렵다.",
        -9.09069818125684
      ],
      [
        " 못한",
        -9.093591012107453
      ],
      [
        "표",
        -9.094561605553674
      ],
      [
        "학",
        -9.095260576392764
      ],
      [
        "임",
        -9.096673040940772
      ],
      [
        "하였던",
        -9.097229646754856
      ],
      [
        " 공동",
        -9.098268809374474
      ],
      [
        " 재산",
        -9.098427749369202
      ],
      [
        " 사정",
        -9.098690898327872
      ],
      [
        " 설명",
        -9.099367349079529
      ],
      [
        " 제10조",
        -9.099731766839982
      ],
      [
        " 달",
        -9.100477099036956
      ],
      [
        " 동일",
        -9.103635791498128
      ],
      [
        " 이용하여",
        -9.103841882504431
      ],
      [
        " 이익",
        -9.104085457899483
      ],
      [
        " 소비자",
        -9.105819654358728
      ],
      [
        " 조성",
        -9.10655859462974
      ],
      [
        " 원고들",
        -9.107471615520945
      ],
      [
        " 처벌",
        -9.107543702722555
      ],
      [
        "들은",
        -9.107559486944629
      ],
      [
        " 과태료",
        -9.10847204883901
      ],
      [
        " 적법한",
        -9.108894670952964
      ],
      [
        " 보는",
        -9.110014095272907
      ],
      [
        " 제1조",
        -9.110105201783222
      ],
      [
        " 보관",
        -9.110738622985403
      ],
      [
        " 새로운",
        -9.111077974551543
      ],
      [
        "처분을",
        -9.11110615841362
      ],
      [
        " 제외한",
        -9.112737955240156
      ],
      [
        "취지의",
        -9.114148691328303
      ],
      [
        "법에",
        -9.114277084819182
      ],
      [
        " 때문에",
        -9.114533966682815
      ],
      [
        " 제11조",
        -9.115103597297278
      ],
      [
        " 규정이",
        -9.116243523418804
      ],
      [
        "자로",
        -9.1164854538279
      ],
      [
        " 없으므로,",
        -9.11927682764242
      ],
      [
        " 사용하는",
        -9.120958606641985
      ],
      [
        " 제23조",
        -9.121712155175768
      ],
      [
        " 내용이",
        -9.12211086597594
      ],
      [
        " 항소",
        -9.12229704093383
      ],
      [
        "송",
        -9.122915935056062
      ],
      [
        "들을",
        -9.123133864991384
      ],
      [
        " 소재",
        -9.123247232744268
      ],
      [
        "등을",
        -9.12334371120542
      ],
      [
        "임을",
        -9.125577108152203
      ],
      [
        "있음을",
        -9.125949691843942
      ],
      [
        " 필요하다",
        -9.12664033653622
      ],
      [
        " 인식",
        -9.127075910312184
      ],
      [
        "하던",
        -9.127883046322228
      ],
      [
        " 없을",
        -9.12817971007682
      ],
      [
        " 투자",
        -9.128378499106168
      ],
      [
        " 행위가",
        -9.12838551177499
      ],
      [
        "원에",
        -9.128624987996291
      ],
      [
        " 기재된",
        -9.13016447985265
      ],
      [
        " 사유로",
        -9.130526589622503
      ],
      [
        " 기한",
        -9.132666389194346
      ],
      [
        " 제13조",
        -9.132746623306687
      ],
      [
        " 다만",
        -9.134333765009156
      ],
      [
        " 계획",
        -9.134387375527602
      ],
      [
        " 2001.",
        -9.13485055554762
      ],
      [
        "병",
        -9.135064439486865
      ],
      [
        " 것인바,",
        -9.135558176594232
      ],
      [
        " 외에",
        -9.136256804806068
      ],
      [
        " 공개",
        -9.136409206299598
      ],
      [
        "주장과",
        -9.1373514484603
      ],
      [
        " 후에",
        -9.137870825535826
      ],
      [
        " 배상",
        -9.138365861745434
      ],
      [
        "행위",
        -9.139010245973513
      ],
      [
        " 있었다고",
        -9.139195536790728
      ],
      [
        "개",
        -9.13936035782566
      ],
      [
        " 5,",
        -9.139756446973996
      ],
      [
        " 13",
        -9.140476278538868
      ],
      [
        " 조합",
        -9.141632556218338
      ],
      [
        "개발",
        -9.142152849483788
      ],
      [
        " 규모",
        -9.142488394730904
      ],
      [
        "고,",
        -9.14307123698871
      ],
      [
        "정보",
        -9.143734784560872
      ],
      [
        " 잘못이",
        -9.144260299509703
      ],
      [
        "복",
        -9.144643965515394
      ],
      [
        " 정하고",
        -9.145212467130875
      ],
      [
        " 인수",
        -9.14558217566606
      ],
      [
        " 받는",
        -9.146011812371787
      ],
      [
        "모",
        -9.149311233905228
      ],
      [
        " 증거",
        -9.14950724476654
      ],
      [
        "되고,",
        -9.14996579123542
      ],
      [
        "계획",
        -9.151390076371184
      ],
      [
        " 수도",
        -9.153816013625914
      ],
      [
        " 오",
        -9.154936158573966
      ],
      [
        " 없고",
        -9.155155785201789
      ],
      [
        " 1에게",
        -9.155795108788643
      ],
      [
        "근",
        -9.156798124671145
      ],
      [
        " 교부",
        -9.15787534469878
      ],
      [
        " 위배",
        -9.158383178229416
      ],
      [
        " 종전",
        -9.158402802325408
      ],
      [
        " 결",
        -9.159422757181812
      ],
      [
        " 분양",
        -9.161478019071206
      ],
      [
        " 망",
        -9.1615364717318
      ],
      [
        " 임금",
        -9.162221017359538
      ],
      [
        "9.",
        -9.163045587843753
      ],
      [
        " 허위",
        -9.164560983802206
      ],
      [
        " 20.",
        -9.164582673397785
      ],
      [
        "서류를",
        -9.16551903344955
      ],
      [
        " 소유자",
        -9.165999547903295
      ],
      [
        "간의",
        -9.166144363701408
      ],
      [
        " 들어",
        -9.166583833369112
      ],
      [
        "15",
        -9.166958168926811
      ],
      [
        " 16.",
        -9.16788549443985
      ],
      [
        " 무죄",
        -9.169091818476833
      ],
      [
        " 주요",
        -9.169165782437023
      ],
      [
        "료",
        -9.169511685017408
      ],
      [
        "소송비용은",
        -9.171064099118112
      ],
      [
        "하였는데,",
        -9.171116623616047
      ],
      [
        " 걸쳐",
        -9.17139334704898
      ],
      [
        " 의사",
        -9.171430855236745
      ],
      [
        " 기각",
        -9.174488065059291
      ],
      [
        "결과를",
        -9.174936895468658
      ],
      [
        " 1997.",
        -9.175189943865076
      ],
      [
        " 발행",
        -9.176460073393812
      ],
      [
        "8.",
        -9.17724941646176
      ],
      [
        " 것이어서",
        -9.17818772169328
      ],
      [
        " 기재되어",
        -9.178203910613908
      ],
      [
        " 설정",
        -9.178872114157864
      ],
      [
        "이므로",
        -9.179757904787207
      ],
      [
        " 이사",
        -9.180129602118436
      ],
      [
        "승인을",
        -9.180947281190855
      ],
      [
        " 현황",
        -9.185475776999832
      ],
      [
        " 임야",
        -9.186277975813194
      ],
      [
        " 비용",
        -9.18637504906429
      ],
      [
        "권리를",
        -9.186673198978564
      ],
      [
        " 유사한",
        -9.187276433595532
      ],
      [
        " 징역",
        -9.188026505404045
      ],
      [
        "하며",
        -9.18841928344226
      ],
      [
        "억",
        -9.18850692906659
      ],
      [
        " 피고인에게",
        -9.188911300758573
      ],
      [
        "바",
        -9.189126762233462
      ],
      [
        " 소유권",
        -9.189195737072057
      ],
      [
        " 100분의",
        -9.190080477032474
      ],
      [
        "되었다.",
        -9.190393112741829
      ],
      [
        "기술",
        -9.192001746397766
      ],
      [
        " \"「",
        -9.192993052735172
      ],
      [
        "드",
        -9.19380439243816
      ],
      [
        "정보를",
        -9.193918293652096
      ],
      [
        " 패소자",
        -9.19412378813628
      ],
      [
        " 판결에",
        -9.194233211404365
      ],
      [
        "평가",
        -9.19434381071252
      ],
      [
        " 확보",
        -9.19574906056642
      ],
      [
        " 2000.",
        -9.196771835925713
      ],
      [
        " 대지",
        -9.19699191197216
      ],
      [
        " 박",
        -9.197286094625094
      ],
      [
        " 위법성",
        -9.198083582337288
      ],
      [
        "검사",
        -9.19830272246577
      ],
      [
        "'",
        -9.198991871305362
      ],
      [
        "위원회의",
        -9.199302598508114
      ],
      [
        " 1998.",
        -9.199738098133912
      ],
      [
        " 판단한",
        -9.200859014876302
      ],
      [
        "철",
        -9.201933413030778
      ],
      [
        " 대표",
        -9.202405905686874
      ],
      [
        " 1999.",
        -9.203163856763132
      ],
      [
        " 추진",
        -9.203768329167728
      ],
      [
        "인지",
        -9.204785802889942
      ],
      [
        " 귀속",
        -9.205235662708532
      ],
      [
        "자료를",
        -9.206741659036282
      ],
      [
        " 판단하였다.",
        -9.207020319926
      ],
      [
        " 이전에",
        -9.207173597008822
      ],
      [
        " 피심인이",
        -9.20753018368277
      ],
      [
        " 담보",
        -9.207603338370546
      ],
      [
        "되거나",
        -9.208331124884836
      ],
      [
        " 미",
        -9.20845603667848
      ],
      [
        "남",
        -9.209489598175743
      ],
      [
        " 단체",
        -9.21024307294484
      ],
      [
        "관계",
        -9.210606895898382
      ],
      [
        " 실행",
        -9.212016812169576
      ],
      [
        " 기각하기로",
        -9.21346338261293
      ],
      [
        "역",
        -9.213607439041398
      ],
      [
        " 적용하여",
        -9.21457951468361
      ],
      [
        " 것인지",
        -9.215262474155214
      ],
      [
        "하되,",
        -9.215844522187885
      ],
      [
        "(대법원",
        -9.21768625308822
      ],
      [
        " 하도급대금",
        -9.219066343533404
      ],
      [
        "난",
        -9.219979246563533
      ],
      [
        " 해당하는지",
        -9.221705555146166
      ],
      [
        ")을",
        -9.222489500849973
      ],
      [
        " 21.",
        -9.223095902672576
      ],
      [
        " 월",
        -9.224236139329284
      ],
      [
        " 규정된",
        -9.22669021324528
      ],
      [
        "반",
        -9.228782455138854
      ],
      [
        " 건설",
        -9.22950946487587
      ],
      [
        " 아니라,",
        -9.229792657652878
      ],
      [
        "20",
        -9.230204693864207
      ],
      [
        " 미리",
        -9.230493888728033
      ],
      [
        " 위반한",
        -9.230777805561392
      ],
      [
        "위원회",
        -9.231070025936193
      ],
      [
        "법관의",
        -9.231598831096427
      ],
      [
        " 점유",
        -9.233365830212016
      ],
      [
        " 고려",
        -9.234108026140808
      ],
      [
        "류",
        -9.236493432521405
      ],
      [
        " 제3자",
        -9.23677043654351
      ],
      [
        " 포함한",
        -9.23723330903823
      ],
      [
        "\"라",
        -9.238138326111686
      ],
      [
        "시험",
        -9.23842378552763
      ],
      [
        "목",
        -9.23877817048112
      ],
      [
        " 법률의",
        -9.239040887034584
      ],
      [
        "30",
        -9.239346819104483
      ],
      [
        " 동시에",
        -9.242151581393305
      ],
      [
        " 행위에",
        -9.242303403757608
      ],
      [
        "거",
        -9.242436262597344
      ],
      [
        "16",
        -9.24275376505526
      ],
      [
        "비록",
        -9.242981261505983
      ],
      [
        " 회사에",
        -9.244766010168304
      ],
      [
        " 지분",
        -9.244906777243072
      ],
      [
        " 소송",
        -9.245127735631508
      ],
      [
        " 매매",
        -9.245992359813258
      ],
      [
        "특히",
        -9.247682919302504
      ],
      [
        ").",
        -9.248456243668205
      ],
      [
        " 받아야",
        -9.249476969229008
      ],
      [
        "별로",
        -9.24983577042872
      ],
      [
        " 가입",
        -9.250796546300448
      ],
      [
        " 심사",
        -9.251735595131654
      ],
      [
        "13",
        -9.251763892597223
      ],
      [
        "판시와",
        -9.25196553556879
      ],
      [
        " 조직",
        -9.252022802855985
      ],
      [
        " 18.",
        -9.25322585140295
      ],
      [
        " 기재에",
        -9.25387598675169
      ],
      [
        " 범위에서",
        -9.254613744551436
      ],
      [
        " 법률상",
        -9.255355149598332
      ],
      [
        " 서울고등법원",
        -9.256381537916898
      ],
      [
        " 것이고",
        -9.256890511833728
      ],
      [
        "17",
        -9.258079271040463
      ],
      [
        "불",
        -9.25834460872182
      ],
      [
        " 1995.",
        -9.258817632933097
      ],
      [
        " 채무자",
        -9.26042075273916
      ],
      [
        " 전혀",
        -9.261079371076296
      ],
      [
        " 지급한",
        -9.263272217866758
      ],
      [
        "처리",
        -9.263313759011826
      ],
      [
        " 주장한다.",
        -9.264536366151813
      ],
      [
        " 신청인",
        -9.264891909670618
      ],
      [
        " 제3호",
        -9.265041719132238
      ],
      [
        " 군",
        -9.265124804027794
      ],
      [
        "피",
        -9.265382233999546
      ],
      [
        "14",
        -9.265593047943792
      ],
      [
        " 자신이",
        -9.266475251005986
      ],
      [
        " 20",
        -9.26759550747142
      ],
      [
        " 보면",
        -9.267632316475682
      ],
      [
        "권을",
        -9.268554716895933
      ],
      [
        " 못",
        -9.268736313622563
      ],
      [
        " 내부",
        -9.269412403156862
      ],
      [
        "번",
        -9.2698335403668
      ],
      [
        " 환경",
        -9.270109985683533
      ],
      [
        " ○",
        -9.270206190318971
      ],
      [
        "다고",
        -9.270406842518364
      ],
      [
        " 있으나,",
        -9.27044756590158
      ],
      [
        " 이유에",
        -9.270703858393365
      ],
      [
        " 정당하고,",
        -9.271210206746463
      ],
      [
        " 14",
        -9.271388535335088
      ],
      [
        " 송달",
        -9.27140262973333
      ],
      [
        " 17.",
        -9.272204841040152
      ],
      [
        "배",
        -9.27306550480878
      ],
      [
        " 위반행위",
        -9.274103286156102
      ],
      [
        "•",
        -9.274534609407572
      ],
      [
        " 대한민국",
        -9.276118447090305
      ],
      [
        " 공동행위",
        -9.276122238822484
      ],
      [
        "하였다",
        -9.276426040948945
      ],
      [
        " 담당변호사",
        -9.2765280211662
      ],
      [
        " 채무",
        -9.276746072466205
      ],
      [
        " 2017.",
        -9.276834529021396
      ],
      [
        " 실제로",
        -9.277223072497502
      ],
      [
        "비율에",
        -9.278758215699346
      ],
      [
        " 검토",
        -9.279141726738729
      ],
      [
        " 위치",
        -9.27953635107584
      ],
      [
        " 여부,",
        -9.280049971010838
      ],
      [
        " 사안",
        -9.281638866945489
      ],
      [
        " 것입니다.",
        -9.2825878465327
      ],
      [
        " 헌법",
        -9.283669468454672
      ],
      [
        " 공정거래위원회",
        -9.284118716054037
      ],
      [
        " 구매",
        -9.284680527789458
      ],
      [
        "입",
        -9.284950187065816
      ],
      [
        "장이",
        -9.284967834187848
      ],
      [
        " 사무",
        -9.285732118694758
      ],
      [
        "기간을",
        -9.285986381647389
      ],
      [
        " 책임",
        -9.286339091038403
      ],
      [
        "취지를",
        -9.286561612815106
      ],
      [
        "기관의",
        -9.286937059072397
      ],
      [
        " 경과",
        -9.286981510248204
      ],
      [
        "오",
        -9.28752616898095
      ],
      [
        "품",
        -9.28757850329651
      ],
      [
        " 乙",
        -9.288179445150387
      ],
      [
        " 지적하는",
        -9.288321955249517
      ],
      [
        " 접수",
        -9.288788721973244
      ],
      [
        "자로서",
        -9.288950571320512
      ],
      [
        " 결의",
        -9.28935282659766
      ],
      [
        " 다음,",
        -9.28955182624958
      ],
      [
        " 별도로",
        -9.291597557686648
      ],
      [
        " 두고",
        -9.295298378697115
      ],
      [
        " 줄",
        -9.295959532130093
      ],
      [
        " 최종",
        -9.296213672659494
      ],
      [
        " 변",
        -9.296488862797494
      ],
      [
        "장에게",
        -9.29745130418686
      ],
      [
        " 인터넷",
        -9.297668399282218
      ],
      [
        " 확정된",
        -9.298091016923111
      ],
      [
        "소를",
        -9.298610379214509
      ],
      [
        " 시험",
        -9.298796562557833
      ],
      [
        "등록",
        -9.299351177808662
      ],
      [
        " 반드시",
        -9.299648648115516
      ],
      [
        " 가장",
        -9.299836688458608
      ],
      [
        " 않는다고",
        -9.29993103361267
      ],
      [
        "0",
        -9.30023530504648
      ],
      [
        " 충분",
        -9.30068836500308
      ],
      [
        "론",
        -9.300791833465274
      ],
      [
        "제1항",
        -9.301154046558754
      ],
      [
        "~",
        -9.301822947316827
      ],
      [
        " 때에",
        -9.301958423521432
      ],
      [
        " 경과조치)",
        -9.302256551412349
      ],
      [
        " 1996.",
        -9.302783554014416
      ],
      [
        "(소갑",
        -9.3031691965542
      ],
      [
        " 법무법인",
        -9.303181739726549
      ],
      [
        " 어떠한",
        -9.303200188101243
      ],
      [
        " 해지",
        -9.303276513133191
      ],
      [
        "금원을",
        -9.303861642557504
      ],
      [
        "순",
        -9.303921778824384
      ],
      [
        " 자체",
        -9.304119791028388
      ],
      [
        " 15",
        -9.30428628630598
      ],
      [
        " 반",
        -9.30506367849332
      ],
      [
        " 제외",
        -9.306576276339916
      ],
      [
        "강",
        -9.30782219103195
      ],
      [
        "*",
        -9.308061124315271
      ],
      [
        " 6,",
        -9.308275807125783
      ],
      [
        "다툼이",
        -9.309872341340183
      ],
      [
        "생",
        -9.310579126626967
      ],
      [
        "구체적으로",
        -9.31081975603215
      ],
      [
        "사업의",
        -9.311017269245651
      ],
      [
        " 검사의",
        -9.31193304965142
      ],
      [
        "\"이란",
        -9.312624235870633
      ],
      [
        " 여부는",
        -9.3131291645586
      ],
      [
        " 당초",
        -9.31423324681286
      ],
      [
        " 말하는",
        -9.314739949902949
      ],
      [
        "준",
        -9.316409753043004
      ],
      [
        " 바,",
        -9.31651758631812
      ],
      [
        " 부담한다.",
        -9.31705789901595
      ],
      [
        " 19.",
        -9.317111798560154
      ],
      [
        "봉",
        -9.317678655913328
      ],
      [
        " 어려운",
        -9.321162672231932
      ],
      [
        " 제14조",
        -9.32166327534145
      ],
      [
        " 제3항에",
        -9.323154519678107
      ],
      [
        " 상당",
        -9.323349065111852
      ],
      [
        " 알고",
        -9.32335482333766
      ],
      [
        "처분",
        -9.324243704827175
      ],
      [
        " 임원",
        -9.324456406852494
      ],
      [
        "목의",
        -9.324938709561623
      ],
      [
        " A",
        -9.325597627388152
      ],
      [
        " 하나",
        -9.325793916463034
      ],
      [
        " 요지",
        -9.326025629774715
      ],
      [
        "절차",
        -9.326503480377058
      ],
      [
        "부당하게",
        -9.3273755921103
      ],
      [
        " 가진",
        -9.327847091308048
      ],
      [
        "함이",
        -9.328078784278024
      ],
      [
        " 거부",
        -9.328366375178188
      ],
      [
        "감",
        -9.329761324613044
      ],
      [
        " 서로",
        -9.330009705310433
      ],
      [
        " 기초",
        -9.330372495603486
      ],
      [
        "돈을",
        -9.331255802721106
      ],
      [
        " ○○○",
        -9.331364694676752
      ],
      [
        "등은",
        -9.332489064707095
      ],
      [
        " 계산",
        -9.333100803796054
      ],
      [
        " 매각",
        -9.333110359141084
      ],
      [
        " 제15조",
        -9.335565956449372
      ],
      [
        "속",
        -9.33602692365747
      ],
      [
        " 금지",
        -9.336162909631902
      ],
      [
        " 작업",
        -9.33727850974264
      ],
      [
        " 직원",
        -9.337400357513031
      ],
      [
        " 법령에",
        -9.33794509076142
      ],
      [
        " 원인으로",
        -9.338874723078774
      ],
      [
        " 심의",
        -9.339046030689476
      ],
      [
        "발",
        -9.339667885281123
      ],
      [
        " 운영에",
        -9.339689173195184
      ],
      [
        " 학교",
        -9.339716822142869
      ],
      [
        "소론과",
        -9.340071931301445
      ],
      [
        " 부가가치세",
        -9.342037774477088
      ],
      [
        " 소유의",
        -9.342535029883024
      ],
      [
        " 수령",
        -9.345158636860518
      ],
      [
        " 종합하면,",
        -9.346143475253069
      ],
      [
        " 인용",
        -9.346679649957665
      ],
      [
        "파",
        -9.346932153982449
      ],
      [
        " 선임",
        -9.34706244163
      ],
      [
        "비용",
        -9.34711858610183
      ],
      [
        " 1992.",
        -9.347125042026546
      ],
      [
        " 발생하는",
        -9.347150770769025
      ],
      [
        "방법",
        -9.349234668409064
      ],
      [
        " 초과하는",
        -9.349323505507389
      ],
      [
        " 징수",
        -9.35213574785809
      ],
      [
        " 지체",
        -9.352386215882143
      ],
      [
        " 제출하여야",
        -9.354990796323504
      ],
      [
        " 차량",
        -9.355560251999709
      ],
      [
        "시설의",
        -9.356958250595456
      ],
      [
        " 종료",
        -9.357938266061144
      ],
      [
        " 도시",
        -9.35795929113357
      ],
      [
        " 먼저",
        -9.358043667756244
      ],
      [
        " 구분",
        -9.358934281420796
      ],
      [
        " 사업연도",
        -9.35913910263655
      ],
      [
        "s",
        -9.362613939395445
      ],
      [
        " 질의",
        -9.363143526771264
      ],
      [
        "주장에",
        -9.363605763190709
      ],
      [
        " 상실",
        -9.364293290382989
      ],
      [
        "금액",
        -9.364706473701538
      ],
      [
        " 인정된다.",
        -9.364825950711952
      ],
      [
        "다)",
        -9.365049610667633
      ],
      [
        " 문제",
        -9.365444686739712
      ],
      [
        " 제20조",
        -9.366421225864327
      ],
      [
        " 인도",
        -9.366689139796778
      ],
      [
        " 개선",
        -9.368774132191142
      ],
      [
        " 공제",
        -9.36937675076707
      ],
      [
        " 하였다.",
        -9.371166854730562
      ],
      [
        " 작성한",
        -9.372043345058016
      ],
      [
        "(주소",
        -9.372126948527804
      ],
      [
        "광",
        -9.372305896063784
      ],
      [
        " 소유권이전등기를",
        -9.372312124043448
      ],
      [
        " 위해서는",
        -9.373185386545126
      ],
      [
        " 위에서",
        -9.37478776797679
      ],
      [
        "원심판결을",
        -9.374831684326836
      ],
      [
        "의견을",
        -9.376107776323314
      ],
      [
        " 적용례)",
        -9.376745391993513
      ],
      [
        "원으로",
        -9.377475712643111
      ],
      [
        "범위를",
        -9.377561826340594
      ],
      [
        " 하더라도,",
        -9.37817369180546
      ],
      [
        " 자기",
        -9.378406337737228
      ],
      [
        "받아",
        -9.378855212057308
      ],
      [
        "희",
        -9.379537497266128
      ],
      [
        "종합적으로",
        -9.380015924430332
      ],
      [
        " 요건",
        -9.380518916927263
      ],
      [
        " 의결",
        -9.380561534752582
      ],
      [
        " 공장",
        -9.381563286413677
      ],
      [
        " 상표",
        -9.38217039517948
      ],
      [
        " 상법",
        -9.382364520385666
      ],
      [
        " 법인의",
        -9.384103651077565
      ],
      [
        " 1과",
        -9.384989785455076
      ],
      [
        " 1994.",
        -9.385727500641586
      ],
      [
        " 중대한",
        -9.388595908700326
      ],
      [
        "책임을",
        -9.388700149044954
      ],
      [
        "사용",
        -9.388770528557924
      ],
      [
        "던",
        -9.389168530889382
      ],
      [
        " 증명",
        -9.391140870634018
      ],
      [
        " 상태에서",
        -9.391244168103132
      ],
      [
        "○",
        -9.391341837052831
      ],
      [
        " 증언",
        -9.391371663641722
      ],
      [
        "회사는",
        -9.391446323947614
      ],
      [
        " 얻",
        -9.392374299107525
      ],
      [
        " 2년",
        -9.392963296967276
      ],
      [
        " 인정하기",
        -9.393689853735284
      ],
      [
        "음",
        -9.393784964692486
      ],
      [
        " 오인",
        -9.39388668396339
      ],
      [
        "변경",
        -9.394449869130602
      ],
      [
        " 근로자",
        -9.394605104266311
      ],
      [
        " 사업자",
        -9.394848502996703
      ],
      [
        "대로",
        -9.395172840970655
      ],
      [
        "공사를",
        -9.39541031783066
      ],
      [
        " 제18조",
        -9.396261259799653
      ],
      [
        "전체의",
        -9.398394408329084
      ],
      [
        " 정부",
        -9.400084326501982
      ],
      [
        "안전",
        -9.400880968997694
      ],
      [
        " 따른다.",
        -9.401915502066403
      ],
      [
        " 대상으로",
        -9.4020176547155
      ],
      [
        " 제공하는",
        -9.402816960647709
      ],
      [
        "령",
        -9.403528048827884
      ],
      [
        " 2차",
        -9.405188201358378
      ],
      [
        " 의해",
        -9.4054073103441
      ],
      [
        " 기업",
        -9.407843215955204
      ],
      [
        " 범죄",
        -9.407898999353224
      ],
      [
        " 제17조",
        -9.408106492057271
      ],
      [
        " 제5",
        -9.408753135777268
      ],
      [
        " 지시",
        -9.409727498608936
      ],
      [
        " 1일부터",
        -9.41016949010758
      ],
      [
        " 보장",
        -9.411174950601204
      ],
      [
        " 1991.",
        -9.411542568159083
      ],
      [
        " 파기",
        -9.412271739340929
      ],
      [
        " 않는다.",
        -9.41275755657706
      ],
      [
        " 목록",
        -9.414599216498145
      ],
      [
        "채무를",
        -9.414888160450175
      ],
      [
        "율",
        -9.41538009964514
      ],
      [
        " 6월",
        -9.41571897489565
      ],
      [
        "방법에",
        -9.416327986518809
      ],
      [
        " 경위",
        -9.4177456218291
      ],
      [
        " 선택",
        -9.417970467645317
      ],
      [
        " 상고이유에",
        -9.421899220563189
      ],
      [
        " 있는데,",
        -9.423949766133244
      ],
      [
        " 날까지",
        -9.4255227227361
      ],
      [
        " 구조",
        -9.425613379929969
      ],
      [
        " 것과",
        -9.426579725240224
      ],
      [
        "고려할",
        -9.427166907297831
      ],
      [
        " 선",
        -9.428083683745502
      ],
      [
        "원칙에",
        -9.428333469479885
      ],
      [
        "함",
        -9.429873429132789
      ],
      [
        "승",
        -9.430440834646893
      ],
      [
        "시설을",
        -9.430660602871324
      ],
      [
        "층",
        -9.431002713502906
      ],
      [
        "하였으나,",
        -9.43112326444606
      ],
      [
        " 도지사",
        -9.43266514350587
      ],
      [
        " 16",
        -9.433081579078692
      ],
      [
        " 상환",
        -9.436507314255346
      ],
      [
        " 판단하여야",
        -9.43653634623994
      ],
      [
        " 당원",
        -9.437038737614982
      ],
      [
        "18",
        -9.437514288951402
      ],
      [
        " 수용",
        -9.4376195176689
      ],
      [
        " 마련",
        -9.439672897237209
      ],
      [
        " 후단",
        -9.440585089165651
      ],
      [
        "자료",
        -9.441063555382629
      ],
      [
        " 1일",
        -9.44140015519057
      ],
      [
        " 않을",
        -9.44192159734204
      ],
      [
        " 면제",
        -9.442054093621708
      ],
      [
        " 행정",
        -9.443605714272808
      ],
      [
        "결정",
        -9.443955554363257
      ],
      [
        " 1993.",
        -9.444348978982765
      ],
      [
        " 제3항,",
        -9.445787470302554
      ],
      [
        " 활용",
        -9.447321366679958
      ],
      [
        " 불이익",
        -9.449277281605848
      ],
      [
        " 보수",
        -9.449818188294769
      ],
      [
        " 보전",
        -9.450021301879902
      ],
      [
        " 입법",
        -9.45017571248811
      ],
      [
        " 것이라",
        -9.450388360143776
      ],
      [
        "까지의",
        -9.450780013844955
      ],
      [
        "되었고,",
        -9.450876201079096
      ],
      [
        " 불",
        -9.451158469066272
      ],
      [
        " 사업장",
        -9.452670474784592
      ],
      [
        " 외국",
        -9.453038596942914
      ],
      [
        "들에게",
        -9.453325463146086
      ],
      [
        " 돈",
        -9.453861994615004
      ],
      [
        " 대표자",
        -9.4539491234729
      ],
      [
        "시장",
        -9.454528389982212
      ],
      [
        " 효력",
        -9.454531416274769
      ],
      [
        " 부여",
        -9.45551473971807
      ],
      [
        " 법적",
        -9.45572245506451
      ],
      [
        " 관련법령",
        -9.456234083315874
      ],
      [
        " 2에게",
        -9.45704609093755
      ],
      [
        "19",
        -9.457963245861574
      ],
      [
        "량",
        -9.458603135617516
      ],
      [
        " 제16조",
        -9.459337454266915
      ],
      [
        "지급",
        -9.459373742808472
      ],
      [
        " 특별",
        -9.459428399752754
      ],
      [
        "밖에",
        -9.45995621817448
      ],
      [
        " 사용할",
        -9.46071646245708
      ],
      [
        "기준을",
        -9.461813621155624
      ],
      [
        " 인가",
        -9.462487890352168
      ],
      [
        " 취소한다.",
        -9.463509527229895
      ],
      [
        " 있습니다.",
        -9.464287971890183
      ],
      [
        " 실질적으로",
        -9.46441733530833
      ],
      [
        " 사람이",
        -9.465859042345889
      ],
      [
        " 명칭",
        -9.466019265272688
      ],
      [
        "운영",
        -9.466665035545793
      ],
      [
        " 개별",
        -9.466773802088792
      ],
      [
        " 채용",
        -9.46704550434952
      ],
      [
        "력",
        -9.467381151566547
      ],
      [
        " 범죄사실",
        -9.467925263571672
      ],
      [
        "된다.",
        -9.468290128443636
      ],
      [
        "기업",
        -9.468433919162848
      ],
      [
        " 사전",
        -9.468579100011343
      ],
      [
        " 2018.",
        -9.46859160638314
      ],
      [
        "비용을",
        -9.469727612686013
      ],
      [
        " 예정",
        -9.470567873904692
      ],
      [
        " 포함되어",
        -9.470876943440354
      ],
      [
        " 활동",
        -9.470882924846451
      ],
      [
        "약",
        -9.471555878629136
      ],
      [
        " 배제",
        -9.472235766428255
      ],
      [
        " 자격",
        -9.47332534136983
      ],
      [
        " 기준에",
        -9.47427322087789
      ],
      [
        " 기본",
        -9.475152348873705
      ],
      [
        " 대표이사",
        -9.475758458908611
      ],
      [
        " 3년",
        -9.477133599176874
      ],
      [
        "지구",
        -9.477300944317564
      ],
      [
        " 납부기한",
        -9.47893488694582
      ],
      [
        " 서면",
        -9.479031500990573
      ],
      [
        " 갖추",
        -9.479790997458435
      ],
      [
        " 제5항",
        -9.480199308811471
      ],
      [
        "시간",
        -9.480765414356531
      ],
      [
        " 한다)의",
        -9.481145864778243
      ],
      [
        " 그러",
        -9.481766124341336
      ],
      [
        " 문서",
        -9.481828228528322
      ],
      [
        "하여,",
        -9.48278691647596
      ],
      [
        " 수출",
        -9.483142716671834
      ],
      [
        "호에",
        -9.483930115308056
      ],
      [
        "타",
        -9.484162672606583
      ],
      [
        "지급을",
        -9.484602290065336
      ],
      [
        " 소멸",
        -9.48472467433005
      ],
      [
        " 부정한",
        -9.484954514963892
      ],
      [
        " 개설",
        -9.485086350129464
      ],
      [
        " 입은",
        -9.485437007655149
      ],
      [
        " 목적물",
        -9.48634410875898
      ],
      [
        "사항",
        -9.487003368056932
      ],
      [
        " 1인",
        -9.488791018452265
      ],
      [
        " 1990.",
        -9.489767877703883
      ],
      [
        " 부동산의",
        -9.489894857253118
      ],
      [
        " 한다)에",
        -9.491436244737775
      ],
      [
        " 비롯",
        -9.491449848155744
      ],
      [
        "소유권을",
        -9.491498497183274
      ],
      [
        " 지위",
        -9.491731643691162
      ],
      [
        " 이건",
        -9.491899419578154
      ],
      [
        " 제외한다)",
        -9.491998722049226
      ],
      [
        "상당의",
        -9.4923727177152
      ],
      [
        " 서비스",
        -9.493404184599065
      ],
      [
        "보험",
        -9.494208644309015
      ],
      [
        " 않아",
        -9.494589861283307
      ],
      [
        " 성질",
        -9.49476519194912
      ],
      [
        " 경쟁",
        -9.495123564477383
      ],
      [
        " 강",
        -9.495872454536991
      ],
      [
        " 처분의",
        -9.496859927097503
      ],
      [
        " 국제",
        -9.49687963710002
      ],
      [
        " 사실에",
        -9.497016504411295
      ],
      [
        "판결",
        -9.497192854989818
      ],
      [
        "여부(소극)",
        -9.497205007113704
      ],
      [
        " 주식회사의",
        -9.49903697578213
      ],
      [
        " 아니하여",
        -9.499192129305865
      ],
      [
        " 1차",
        -9.500361292489556
      ],
      [
        " 사실오인",
        -9.501692001170849
      ],
      [
        " 개시",
        -9.501940340891798
      ],
      [
        "편",
        -9.502311419083464
      ],
      [
        " 인정하고",
        -9.50259257417633
      ],
      [
        " 삼",
        -9.502908244474613
      ],
      [
        "번호",
        -9.502908552128028
      ],
      [
        " 제2조(",
        -9.503145862236453
      ],
      [
        " 믿",
        -9.50334579340535
      ],
      [
        " 아니할",
        -9.503480523878864
      ],
      [
        "일부터",
        -9.504473984755284
      ],
      [
        " 감사",
        -9.504578940756897
      ],
      [
        "하였고",
        -9.504847599712283
      ],
      [
        " 원칙적으로",
        -9.504941569412344
      ],
      [
        "이란",
        -9.504953527823046
      ],
      [
        " 금원",
        -9.505318831129513
      ],
      [
        "규정",
        -9.505977785786612
      ],
      [
        " 보",
        -9.506583738394102
      ],
      [
        " 지나",
        -9.508089614641234
      ],
      [
        "죄",
        -9.508486303859488
      ],
      [
        " 3)",
        -9.509043879195632
      ],
      [
        " 제작",
        -9.50909454599124
      ],
      [
        "별도의",
        -9.509162271733624
      ],
      [
        "서를",
        -9.510169807744616
      ],
      [
        " 아니다.",
        -9.510199464895448
      ],
      [
        "환경",
        -9.510317342501036
      ],
      [
        "사업자가",
        -9.510357152192936
      ],
      [
        "지위를",
        -9.510708535860472
      ],
      [
        " 온",
        -9.511943152853949
      ],
      [
        " 일정",
        -9.512428236039066
      ],
      [
        " 제37조",
        -9.512606205544108
      ],
      [
        " 피해자가",
        -9.512644210463074
      ],
      [
        " 이익이",
        -9.51292081773363
      ],
      [
        " 결과에",
        -9.513429871157326
      ],
      [
        " 기록",
        -9.513445813126223
      ],
      [
        " 낙찰",
        -9.515060301495106
      ],
      [
        " 7,",
        -9.51530910757072
      ],
      [
        "티",
        -9.51706477021748
      ],
      [
        " (생",
        -9.517732649980632
      ],
      [
        " 철거",
        -9.51781720515485
      ],
      [
        " 갚",
        -9.517894354611258
      ],
      [
        " 담당",
        -9.51803849269023
      ],
      [
        " 합병",
        -9.519240016713573
      ],
      [
        "내용과",
        -9.519270406807214
      ],
      [
        "서울고법",
        -9.519952442021502
      ],
      [
        " 당시의",
        -9.520002466097518
      ],
      [
        " 거짓",
        -9.52077878020634
      ],
      [
        " 채택",
        -9.520994828654484
      ],
      [
        " 증가",
        -9.521046572018363
      ],
      [
        " 계산한",
        -9.52153269349695
      ],
      [
        " 신축",
        -9.521802128093178
      ],
      [
        "월",
        -9.522718802225814
      ],
      [
        " 경제적",
        -9.52289939130475
      ],
      [
        " 다음날부터",
        -9.523430358224315
      ],
      [
        "사례,",
        -9.524405098483046
      ],
      [
        " 자금",
        -9.524608950734391
      ],
      [
        " 방지",
        -9.524863424529872
      ],
      [
        " 해당한다.",
        -9.525330680386348
      ],
      [
        "가능성이",
        -9.52563576315795
      ],
      [
        " 자유",
        -9.52573590259911
      ],
      [
        " 표현",
        -9.52599215101256
      ],
      [
        " 보이는",
        -9.52628813387339
      ],
      [
        " 징계",
        -9.526361100037366
      ],
      [
        "권한을",
        -9.527243541111575
      ],
      [
        " 개최",
        -9.527391412726294
      ],
      [
        " 받아들일",
        -9.527477275771664
      ],
      [
        " 피고들",
        -9.527708855564402
      ],
      [
        "터",
        -9.527955101989583
      ],
      [
        " 이유없다.",
        -9.528324350381034
      ],
      [
        "토",
        -9.52874249258848
      ],
      [
        " 사항에",
        -9.529482809018663
      ],
      [
        "부동산을",
        -9.530071282158566
      ],
      [
        " 뒤",
        -9.53210139972303
      ],
      [
        " 증여",
        -9.53218129189457
      ],
      [
        "하다가",
        -9.532247240374266
      ],
      [
        " 제26조",
        -9.532334904018816
      ],
      [
        "한다)을",
        -9.532676972198589
      ],
      [
        " 회수",
        -9.532888173143622
      ],
      [
        " 규정은",
        -9.533928841295166
      ],
      [
        " 지출",
        -9.534430277386248
      ],
      [
        " 각종",
        -9.534457086286745
      ],
      [
        " 성격",
        -9.53459605883024
      ],
      [
        " 스스로",
        -9.534985545287393
      ],
      [
        " 미치는",
        -9.535315859169142
      ],
      [
        " 제1,",
        -9.535897779012302
      ],
      [
        " 특허",
        -9.536478357606416
      ],
      [
        " 예상",
        -9.537396091126826
      ],
      [
        " 초래",
        -9.53892590483006
      ],
      [
        "없이",
        -9.53896659219706
      ],
      [
        " 변론종결",
        -9.5397957383136
      ],
      [
        " 최",
        -9.540564583904512
      ],
      [
        " 첨부하여",
        -9.541951709023094
      ],
      [
        "판매",
        -9.542370243434997
      ],
      [
        " 근로기준법",
        -9.542673439760984
      ],
      [
        " 제21조",
        -9.542770639294096
      ],
      [
        " 벌금",
        -9.543213580310129
      ],
      [
        " 것처럼",
        -9.543818136771568
      ],
      [
        " 압류",
        -9.54435282408494
      ],
      [
        " 12월",
        -9.544398772718168
      ],
      [
        " 출석",
        -9.5460550542888
      ],
      [
        "원고들은",
        -9.547105338185766
      ],
      [
        " 부정",
        -9.547173274689516
      ],
      [
        " 입증",
        -9.547264373864952
      ],
      [
        " 따르면",
        -9.548023631687805
      ],
      [
        "주택",
        -9.548289561859146
      ],
      [
        " 공고",
        -9.54867024664263
      ],
      [
        "그럼에도",
        -9.550173296809568
      ],
      [
        "12.",
        -9.551178433403782
      ],
      [
        " (가)",
        -9.551507710259118
      ],
      [
        " 판결(공200",
        -9.55330210335564
      ],
      [
        " 인상",
        -9.553650933428717
      ],
      [
        "통",
        -9.55408696215978
      ],
      [
        "구역",
        -9.554871492959668
      ],
      [
        "효력을",
        -9.555075051705677
      ],
      [
        " 포함된",
        -9.5552001177174
      ],
      [
        " 증거에",
        -9.555515145877216
      ],
      [
        " 여부(적극)",
        -9.556266483441735
      ],
      [
        " 제24조",
        -9.557729693241177
      ],
      [
        " 추정",
        -9.558515369104176
      ],
      [
        " 지급하는",
        -9.559940638902336
      ],
      [
        "의무",
        -9.562359213175636
      ],
      [
        "건축물의",
        -9.563522077961816
      ],
      [
        "함을",
        -9.564823642889223
      ],
      [
        " 함)",
        -9.564888184659578
      ],
      [
        "든",
        -9.56493530016848
      ],
      [
        " 감소",
        -9.565147313930634
      ],
      [
        "담",
        -9.565292376303203
      ],
      [
        "회의",
        -9.567440479044723
      ],
      [
        " 무효",
        -9.569877483487026
      ],
      [
        " 재산상",
        -9.570557933767375
      ],
      [
        " 무렵",
        -9.57100298290263
      ],
      [
        "가격",
        -9.571827104424264
      ],
      [
        " 매입",
        -9.571949997499445
      ],
      [
        "설",
        -9.572757628205244
      ],
      [
        " 충족",
        -9.57415550307097
      ],
      [
        " ~",
        -9.574602833188392
      ],
      [
        " 내용으로",
        -9.57507677329262
      ],
      [
        "은행",
        -9.57551437668353
      ],
      [
        " 사안에서",
        -9.575658657681686
      ],
      [
        " 제25조",
        -9.576586632544544
      ],
      [
        " 주된",
        -9.576644824809788
      ],
      [
        "처",
        -9.576758656863566
      ],
      [
        " 새로",
        -9.57809903870666
      ],
      [
        " 자산",
        -9.578885556216646
      ],
      [
        " 고지",
        -9.57911957244866
      ],
      [
        " 퇴직금",
        -9.5801559906719
      ],
      [
        " 고용",
        -9.581169095137472
      ],
      [
        " 권한",
        -9.581240392437858
      ],
      [
        " 않았다",
        -9.581549353748953
      ],
      [
        " 제6",
        -9.58292909232389
      ],
      [
        "3)",
        -9.583003643311924
      ],
      [
        "하였으므로",
        -9.583501456647612
      ],
      [
        " 임용",
        -9.585245626960312
      ],
      [
        "항소를",
        -9.585259886210396
      ],
      [
        "사업자",
        -9.58576721962148
      ],
      [
        " 구체적",
        -9.586294250852614
      ],
      [
        " 30일",
        -9.586321986279094
      ],
      [
        " 설립된",
        -9.586709983347658
      ],
      [
        "행위에",
        -9.58679229206535
      ],
      [
        "결",
        -9.586917219789743
      ],
      [
        "등에",
        -9.588055503803336
      ],
      [
        "투자",
        -9.588845294933517
      ],
      [
        " 제30조",
        -9.589436556517244
      ],
      [
        " 방해",
        -9.589587172370765
      ],
      [
        " 임대",
        -9.5896918090144
      ],
      [
        "비로",
        -9.591230074403889
      ],
      [
        "친",
        -9.591398764054878
      ],
      [
        " 제시",
        -9.591483376113947
      ],
      [
        " 하자",
        -9.591773431392497
      ],
      [
        " 검찰",
        -9.591823728359907
      ],
      [
        " 운행",
        -9.5924129279611
      ],
      [
        " 심리",
        -9.592828771769174
      ],
      [
        "림",
        -9.593034186116128
      ],
      [
        " 50",
        -9.59338978572864
      ],
      [
        " 전기",
        -9.593480675222269
      ],
      [
        " 채증법칙",
        -9.593566180760792
      ],
      [
        " 때까지",
        -9.596445659499338
      ],
      [
        "축",
        -9.597003953353436
      ],
      [
        " 정도로",
        -9.597420640760202
      ],
      [
        " 한하여",
        -9.59778569929051
      ],
      [
        "이유가",
        -9.597804899414216
      ],
      [
        "자인",
        -9.600139437150832
      ],
      [
        " 취지에",
        -9.600311909279704
      ],
      [
        " 회원",
        -9.600549442861126
      ],
      [
        "22",
        -9.601611614182522
      ],
      [
        " 운영하는",
        -9.6022151138652
      ],
      [
        " 참가인",
        -9.602391403203445
      ],
      [
        "법리에",
        -9.60328134799907
      ],
      [
        "보호",
        -9.604127302444567
      ],
      [
        " 예산",
        -9.604730409086915
      ],
      [
        " 법인세",
        -9.60506580756164
      ],
      [
        " 3의",
        -9.605426589399505
      ],
      [
        " 또한,",
        -9.606088400614883
      ],
      [
        " 없으며,",
        -9.607240306282142
      ],
      [
        "오히려",
        -9.60734449368022
      ],
      [
        " 인증",
        -9.607607490049244
      ],
      [
        " 제4호",
        -9.607612569517451
      ],
      [
        " 수리",
        -9.607696979829017
      ],
      [
        " 재판",
        -9.60780765507826
      ],
      [
        " 보유",
        -9.607945528466091
      ],
      [
        "원심법원에",
        -9.608255984491596
      ],
      [
        "회사",
        -9.611237159098348
      ],
      [
        " 평균",
        -9.611701828784255
      ],
      [
        " 직무",
        -9.612571120798943
      ],
      [
        " 것이라는",
        -9.612905869543978
      ],
      [
        " 시공",
        -9.61312981594493
      ],
      [
        " 노동조합",
        -9.613250109881022
      ],
      [
        " 비교",
        -9.613796372204265
      ],
      [
        " 책임이",
        -9.614006997313137
      ],
      [
        " 피신청인",
        -9.614210713441546
      ],
      [
        "매",
        -9.614509957748837
      ],
      [
        "러",
        -9.614655453656312
      ],
      [
        " 말한다)",
        -9.615035466808784
      ],
      [
        "25",
        -9.616515081085712
      ],
      [
        " 설계",
        -9.616545908806136
      ],
      [
        " 제28조",
        -9.61713155988746
      ],
      [
        " 정관",
        -9.617598665950103
      ],
      [
        " 우리",
        -9.618669957319998
      ],
      [
        " 작성하여",
        -9.618825727452316
      ],
      [
        " 농지",
        -9.620234962072608
      ],
      [
        " 17",
        -9.621171113619395
      ],
      [
        " 그것이",
        -9.622407094783837
      ],
      [
        " 아니라고",
        -9.624505517208652
      ],
      [
        "도록",
        -9.624701801988376
      ],
      [
        " 제33조",
        -9.624737853121148
      ],
      [
        " 준수",
        -9.625262275198104
      ],
      [
        "하더라도",
        -9.62542283621616
      ],
      [
        " 원인",
        -9.625742742615076
      ],
      [
        " 지방",
        -9.626374245064122
      ],
      [
        " 가능한",
        -9.626907328616172
      ],
      [
        "범",
        -9.627129588018027
      ],
      [
        " 것인데,",
        -9.627331368426804
      ],
      [
        " 제38조",
        -9.62736155543942
      ],
      [
        "\"대통령령으로",
        -9.627483155669797
      ],
      [
        " 정원",
        -9.628699016290032
      ],
      [
        "통한",
        -9.628787097578558
      ],
      [
        "더라도",
        -9.62892589986588
      ],
      [
        " 은행",
        -9.62907562655604
      ],
      [
        " 단체협약",
        -9.629569834583627
      ],
      [
        " 공동으로",
        -9.629805982854837
      ],
      [
        " 불법",
        -9.629991543495803
      ],
      [
        " 1.부터",
        -9.631158366195764
      ],
      [
        " 운전",
        -9.63131705957003
      ],
      [
        "린",
        -9.632291314812182
      ],
      [
        "케",
        -9.632646789696873
      ],
      [
        " 명확",
        -9.633544281701235
      ],
      [
        "면서",
        -9.63385810308863
      ],
      [
        "필",
        -9.634439400262194
      ],
      [
        " 선거",
        -9.63463527414066
      ],
      [
        " 참가",
        -9.635545824487304
      ],
      [
        " (나)",
        -9.635917907190956
      ],
      [
        "절",
        -9.63600690894781
      ],
      [
        " 매출액",
        -9.636504967031454
      ],
      [
        "의사를",
        -9.637469047994248
      ],
      [
        " 제32조",
        -9.637712831725471
      ],
      [
        " 사건에서",
        -9.637790496747051
      ],
      [
        " 운용",
        -9.638242989797057
      ],
      [
        "피고들의",
        -9.63921012064579
      ],
      [
        " 참조)",
        -9.639478712302576
      ],
      [
        " 타",
        -9.63980031071151
      ],
      [
        " 일반적으로",
        -9.64070591474735
      ],
      [
        " 근로자의",
        -9.640772808064485
      ],
      [
        " 없게",
        -9.64085843624894
      ],
      [
        " 수집",
        -9.641297210476948
      ],
      [
        " 당연히",
        -9.641728025888836
      ],
      [
        " 면적",
        -9.641823157227028
      ],
      [
        " 주소",
        -9.642289647344194
      ],
      [
        " 점에서",
        -9.64231033156788
      ],
      [
        "현저히",
        -9.643333360294209
      ],
      [
        " 미치",
        -9.643970024000875
      ],
      [
        " 1989.",
        -9.644348380336693
      ],
      [
        " 성명",
        -9.644388055104503
      ],
      [
        " 이자",
        -9.645064972222151
      ],
      [
        "하였거나",
        -9.645180055528902
      ],
      [
        " 법정",
        -9.645522905303952
      ],
      [
        " 정당",
        -9.645709320106109
      ],
      [
        " 폐지",
        -9.646895843147307
      ],
      [
        " 어음",
        -9.646947054410418
      ],
      [
        " 운송",
        -9.646987368128228
      ],
      [
        " 이상인",
        -9.647388459832204
      ],
      [
        " 매매계약",
        -9.647470036228132
      ],
      [
        " 공",
        -9.64768182331449
      ],
      [
        " 주주",
        -9.647971676779113
      ],
      [
        " 지방자치단체",
        -9.648487673417486
      ],
      [
        "카",
        -9.648915960217654
      ],
      [
        " 납품",
        -9.65024886066582
      ],
      [
        " 위험",
        -9.650429818208847
      ],
      [
        "21",
        -9.650850178067277
      ],
      [
        " 최초",
        -9.650887846310823
      ],
      [
        " 있으나",
        -9.650908358127094
      ],
      [
        "e",
        -9.651713714955244
      ],
      [
        " 제29조",
        -9.65291057783896
      ],
      [
        " 앞으로",
        -9.65358907460703
      ],
      [
        " 내용에",
        -9.653783511790175
      ],
      [
        "하나의",
        -9.65436114742336
      ],
      [
        " 단정",
        -9.65550230584731
      ],
      [
        " B",
        -9.656902924346952
      ],
      [
        " 승계",
        -9.657078655613446
      ],
      [
        "청구할",
        -9.657276293891352
      ],
      [
        "결정을",
        -9.657299183509508
      ],
      [
        " 표",
        -9.658037146276769
      ],
      [
        " 법률에",
        -9.658256736024164
      ],
      [
        " 통상",
        -9.658422834811596
      ],
      [
        "동의를",
        -9.659378850792994
      ],
      [
        " 제반",
        -9.659988488012322
      ],
      [
        "취",
        -9.661001744824055
      ],
      [
        " 상대방",
        -9.661154321939131
      ],
      [
        " 방",
        -9.662528573185394
      ],
      [
        " 제7",
        -9.66260316516022
      ],
      [
        " 대금",
        -9.662708929616793
      ],
      [
        " 소득세법",
        -9.662763440644468
      ],
      [
        " 겸",
        -9.66343241803721
      ],
      [
        " 감독",
        -9.663824753960814
      ],
      [
        " 동법",
        -9.664063897623402
      ],
      [
        "확인",
        -9.664363974434629
      ],
      [
        " 알려",
        -9.664688737543017
      ],
      [
        " 전환",
        -9.66504912413894
      ],
      [
        " 포함)",
        -9.665064221725238
      ],
      [
        "본",
        -9.6656501553512
      ],
      [
        " C",
        -9.665948910661534
      ],
      [
        " 소갑",
        -9.666115016785204
      ],
      [
        " 퇴직",
        -9.666664859116668
      ],
      [
        " 제정",
        -9.666746693764267
      ],
      [
        " 대여",
        -9.666859307344229
      ],
      [
        " 의견이",
        -9.667105392763984
      ],
      [
        " 제27조",
        -9.667240541934516
      ],
      [
        " 있어야",
        -9.667837395046917
      ],
      [
        "하자",
        -9.668893588649686
      ],
      [
        " 중인",
        -9.669013004089916
      ],
      [
        " 그로",
        -9.669080140231276
      ],
      [
        " 손해배상",
        -9.669435100374209
      ],
      [
        " 제22조",
        -9.669437392330815
      ],
      [
        "신청",
        -9.670510290953706
      ],
      [
        "따로",
        -9.670626584639484
      ],
      [
        " 원칙",
        -9.670677724823136
      ],
      [
        " 생활",
        -9.671500377789092
      ],
      [
        "24",
        -9.671540116177573
      ],
      [
        " 물론",
        -9.672150806608046
      ],
      [
        " 업무상",
        -9.672494754501724
      ],
      [
        " 이후에",
        -9.672946590439262
      ],
      [
        " 신규",
        -9.67314299334918
      ],
      [
        " 제한하는",
        -9.673244165838597
      ],
      [
        "센터",
        -9.673349214536318
      ],
      [
        " 반영",
        -9.673505408417622
      ],
      [
        " 보증",
        -9.673931520556913
      ],
      [
        "옥",
        -9.674054379376082
      ],
      [
        " 예",
        -9.674620320499956
      ],
      [
        " 공공",
        -9.67518828652174
      ],
      [
        " 중요한",
        -9.675881213942311
      ],
      [
        "규",
        -9.676525053148964
      ],
      [
        " 배척",
        -9.67660490553624
      ],
      [
        "서비스",
        -9.67701304389548
      ],
      [
        " 높은",
        -9.677588015544838
      ],
      [
        "처분은",
        -9.678616337149863
      ],
      [
        " 8,",
        -9.679341228898188
      ],
      [
        " 항소이유",
        -9.67970823316174
      ],
      [
        " 용역",
        -9.679762939530132
      ],
      [
        " 관여법관",
        -9.68007137771164
      ],
      [
        "행위가",
        -9.680207186397364
      ],
      [
        " 5년",
        -9.68105693370386
      ],
      [
        "등기",
        -9.681225779359004
      ],
      [
        "11.",
        -9.68165539063409
      ],
      [
        " 제1호,",
        -9.682543619736665
      ],
      [
        " 개정된",
        -9.683614170017846
      ],
      [
        " 사회",
        -9.683646518895753
      ],
      [
        " 신설",
        -9.683823298568711
      ],
      [
        " 방송",
        -9.68406511360801
      ],
      [
        " 갖춘",
        -9.68459465382638
      ],
      [
        "원이",
        -9.68525672205008
      ],
      [
        "대금",
        -9.685430545726462
      ],
      [
        "초",
        -9.686494512290434
      ],
      [
        " 구축",
        -9.686706853685472
      ],
      [
        " 준용",
        -9.686870284598772
      ],
      [
        " 서울특별시",
        -9.687778325558856
      ],
      [
        "되었다는",
        -9.688333955408329
      ],
      [
        " 유통",
        -9.688385470558162
      ],
      [
        " 합리적인",
        -9.68886583605212
      ],
      [
        "하였는바,",
        -9.68907651269959
      ],
      [
        " 자신",
        -9.689397719797366
      ],
      [
        " 범위에",
        -9.690973070152218
      ],
      [
        " 모집",
        -9.69144239802981
      ],
      [
        " 전자",
        -9.69148343382485
      ],
      [
        " 중에서",
        -9.691866950685776
      ],
      [
        " 처",
        -9.692153541429589
      ],
      [
        "도로",
        -9.692512645444946
      ],
      [
        "년",
        -9.692615567981834
      ],
      [
        " 특성",
        -9.692766818880685
      ],
      [
        " 대신",
        -9.692781552335797
      ],
      [
        " 기하여",
        -9.693247052153442
      ],
      [
        " 가지",
        -9.69340008945537
      ],
      [
        "씨",
        -9.694052949876454
      ],
      [
        "덕",
        -9.694110983562991
      ],
      [
        " 경우는",
        -9.694113363464137
      ],
      [
        " 중단",
        -9.694802385244085
      ],
      [
        " 산입",
        -9.695067503144235
      ],
      [
        " 크",
        -9.69515002123278
      ],
      [
        " 경우로서",
        -9.6952629578494
      ],
      [
        " 나)",
        -9.695914501256055
      ],
      [
        "간에",
        -9.696381556531218
      ],
      [
        " 용어",
        -9.69711093048489
      ],
      [
        " 어떤",
        -9.697309191255211
      ],
      [
        " 18",
        -9.697396494898022
      ],
      [
        "제1항에",
        -9.697802697963484
      ],
      [
        " 완성",
        -9.698426240795236
      ],
      [
        "제한",
        -9.698609851125669
      ],
      [
        "심사",
        -9.70016741480674
      ],
      [
        " 기능",
        -9.701153551956612
      ],
      [
        " 사실과",
        -9.702498851728468
      ],
      [
        " 보존",
        -9.703473186304263
      ],
      [
        " 과세",
        -9.7035331855234
      ],
      [
        " 가)",
        -9.705314914366824
      ],
      [
        " 매도",
        -9.705717533564298
      ],
      [
        " 입",
        -9.705731411602212
      ],
      [
        "져",
        -9.705750081092951
      ],
      [
        " 사용한",
        -9.706108798586476
      ],
      [
        " 고객",
        -9.706245630624476
      ],
      [
        " 준용한다.",
        -9.706289521152836
      ],
      [
        "일을",
        -9.707097336828854
      ],
      [
        " 해외",
        -9.7074453889387
      ],
      [
        " 살펴",
        -9.70789735907236
      ],
      [
        "제1호에",
        -9.70810993841736
      ],
      [
        " 19",
        -9.708417917343978
      ],
      [
        " 각하",
        -9.70851069993867
      ],
      [
        " 단서에",
        -9.709058688491728
      ],
      [
        " 급여",
        -9.710412764747948
      ],
      [
        "가격을",
        -9.711089790280424
      ],
      [
        " 용도",
        -9.71119740008911
      ],
      [
        " 변경하는",
        -9.712192558976836
      ],
      [
        " 유사",
        -9.712466835344175
      ],
      [
        " 미국",
        -9.712848651108937
      ],
      [
        " 첨부",
        -9.713393334427693
      ],
      [
        " 대응",
        -9.713862018707047
      ],
      [
        " 치료",
        -9.714923855071438
      ],
      [
        " 업무에",
        -9.715137047102097
      ],
      [
        " 승낙",
        -9.715295356170666
      ],
      [
        " 일시",
        -9.71572284112585
      ],
      [
        " 부합하는",
        -9.716412923050983
      ],
      [
        " 분석",
        -9.716471455825372
      ],
      [
        " 수사",
        -9.71669402219215
      ],
      [
        "인해",
        -9.716721481503969
      ],
      [
        " 완료",
        -9.718305020687904
      ],
      [
        "23",
        -9.71893251731517
      ],
      [
        "최초로",
        -9.719472129420646
      ],
      [
        "타인의",
        -9.719722316051724
      ],
      [
        "예",
        -9.720002622420251
      ],
      [
        " 해당하므로",
        -9.720292854483471
      ],
      [
        " 1987.",
        -9.720303018524632
      ],
      [
        " 지위에",
        -9.721943928246292
      ],
      [
        "장의",
        -9.72234497427635
      ],
      [
        " 방식으로",
        -9.722512367239926
      ],
      [
        " 경매",
        -9.72390266393029
      ],
      [
        " 제출자료",
        -9.7240188460806
      ],
      [
        " 객관적으로",
        -9.724624816751236
      ],
      [
        " 현금",
        -9.725173688719098
      ],
      [
        "등과",
        -9.725578582617704
      ],
      [
        "르",
        -9.725741428840314
      ],
      [
        " 명목으로",
        -9.726179619544544
      ],
      [
        " 순번",
        -9.72715131407582
      ],
      [
        "조합",
        -9.727206147825791
      ],
      [
        " 거치",
        -9.727225235247143
      ],
      [
        "온",
        -9.728044072494736
      ],
      [
        " 뜻",
        -9.72836771330535
      ],
      [
        "제4항",
        -9.728495119828516
      ],
      [
        " 심리미진",
        -9.729117874172363
      ],
      [
        " 노력",
        -9.729368374022249
      ],
      [
        " 장소",
        -9.730261415444367
      ],
      [
        " 물건",
        -9.73027711129825
      ],
      [
        "청구",
        -9.730302183127828
      ],
      [
        " 법원이",
        -9.731109809753043
      ],
      [
        " 원고들에게",
        -9.731633141565146
      ],
      [
        "하다고",
        -9.731669465372097
      ],
      [
        " 규제",
        -9.731714586179756
      ],
      [
        "등록을",
        -9.732454097852866
      ],
      [
        "○○",
        -9.73330024607721
      ],
      [
        "28",
        -9.733312924844558
      ],
      [
        "집",
        -9.73348419129172
      ],
      [
        " 채권자",
        -9.733548934875676
      ],
      [
        " 예방",
        -9.7340112410967
      ],
      [
        "조정",
        -9.735165934553184
      ],
      [
        " 계약의",
        -9.735228192644
      ],
      [
        "조에서",
        -9.735710910280504
      ],
      [
        " 해당하여",
        -9.736059353803313
      ],
      [
        "m",
        -9.736075753142824
      ],
      [
        "차이가",
        -9.73623453434455
      ],
      [
        " 적법",
        -9.736487977086568
      ],
      [
        " 부지",
        -9.736751236292124
      ],
      [
        "된다는",
        -9.73679223161913
      ],
      [
        " 시작",
        -9.736797218961902
      ],
      [
        "열",
        -9.737082024273084
      ],
      [
        " 매출",
        -9.737639254988574
      ],
      [
        " 상태",
        -9.737939278603212
      ],
      [
        " 마.",
        -9.73818485631165
      ],
      [
        " 수행하는",
        -9.738448438337697
      ],
      [
        "길",
        -9.740046491428254
      ],
      [
        " 피고에",
        -9.740718045286163
      ],
      [
        " 지급하지",
        -9.741562941102302
      ],
      [
        " 한계",
        -9.74173146098584
      ],
      [
        " 해고",
        -9.741868857633332
      ],
      [
        " 제1점",
        -9.74276150544108
      ],
      [
        " 유출",
        -9.742797664557854
      ],
      [
        " 피고들이",
        -9.74280472674184
      ],
      [
        " 수익",
        -9.743054413636962
      ],
      [
        "제2항",
        -9.743277198197704
      ],
      [
        "래",
        -9.743547513725405
      ],
      [
        "의사가",
        -9.744944383659965
      ],
      [
        " 감면",
        -9.745429103459749
      ],
      [
        " 문언",
        -9.745482640865838
      ],
      [
        " 마친",
        -9.746319868584402
      ],
      [
        "비율로",
        -9.74642953903644
      ],
      [
        " 판결(공199",
        -9.74644596839659
      ],
      [
        " 취급",
        -9.746918436658584
      ],
      [
        "사건",
        -9.74838687509914
      ],
      [
        "되면",
        -9.748871013362574
      ],
      [
        " 산정기준",
        -9.749160774290893
      ],
      [
        " 법인세법",
        -9.749614163530726
      ],
      [
        " 대체",
        -9.749680586103528
      ],
      [
        " 제공한",
        -9.750209929923946
      ],
      [
        " 소득",
        -9.75057123832358
      ],
      [
        "한다",
        -9.751280148752418
      ],
      [
        "부분",
        -9.751815324965252
      ],
      [
        " 제35조",
        -9.75183336112288
      ],
      [
        " 것이며,",
        -9.75207052581244
      ],
      [
        "숙",
        -9.752361701482885
      ],
      [
        " 사본",
        -9.752765730538334
      ],
      [
        " 발생할",
        -9.753857087075565
      ],
      [
        "고시",
        -9.754046368249073
      ],
      [
        "려",
        -9.75445008448771
      ],
      [
        " 인정사실",
        -9.754515685131349
      ],
      [
        " 것인",
        -9.754526214630625
      ],
      [
        "훈",
        -9.75461047268728
      ],
      [
        "현황",
        -9.75525925235601
      ],
      [
        "등이",
        -9.755807936318355
      ],
      [
        "규칙",
        -9.7561840491161
      ],
      [
        " 규정되어",
        -9.756303453689103
      ],
      [
        "추",
        -9.756393699873406
      ],
      [
        " 연결",
        -9.757224057743668
      ],
      [
        " 과실",
        -9.757314430351771
      ],
      [
        " 이내",
        -9.757534806358253
      ],
      [
        " 세무",
        -9.75767079995602
      ],
      [
        " 이루어지",
        -9.758047847783674
      ],
      [
        " 반하는",
        -9.758233696334068
      ],
      [
        " 즉시",
        -9.75827464707593
      ],
      [
        "건물의",
        -9.760605752202189
      ],
      [
        "수입",
        -9.761372200401242
      ],
      [
        " 전달",
        -9.761800475393953
      ],
      [
        "결과",
        -9.762236554484591
      ],
      [
        " 있음",
        -9.762625744033189
      ],
      [
        "금지",
        -9.762743116805252
      ],
      [
        "활동",
        -9.762880386264204
      ],
      [
        "여지가",
        -9.763979971384162
      ],
      [
        "헌",
        -9.764231081271776
      ],
      [
        "피해자의",
        -9.764570010394518
      ],
      [
        " 취득세",
        -9.764787982106371
      ],
      [
        "26",
        -9.765751179143166
      ],
      [
        " 대리점",
        -9.765794938288089
      ],
      [
        "하였음을",
        -9.766038016338811
      ],
      [
        " 적용되는",
        -9.766146639642963
      ],
      [
        "증거들에",
        -9.766150522548267
      ],
      [
        " 대해서",
        -9.76652987562658
      ],
      [
        " 교통",
        -9.766544321237223
      ],
      [
        " 지급하라.",
        -9.766593199823802
      ],
      [
        " 망인",
        -9.766765309752254
      ],
      [
        " 앞에서",
        -9.767060561419504
      ],
      [
        "저",
        -9.767318132450278
      ],
      [
        " 보험계약",
        -9.767534336935425
      ],
      [
        "성을",
        -9.76825878656537
      ],
      [
        "사실을",
        -9.768309922296648
      ],
      [
        " 상표법",
        -9.768419767280532
      ],
      [
        " 대비",
        -9.769286318465186
      ],
      [
        " 응",
        -9.769438663357072
      ],
      [
        "자금을",
        -9.771352974312697
      ],
      [
        " 포함하여",
        -9.7713879709676
      ],
      [
        " 의약품",
        -9.771510229136506
      ],
      [
        " 이동",
        -9.771757665237176
      ],
      [
        " 발견",
        -9.772267171522405
      ],
      [
        "관련",
        -9.772294381776929
      ],
      [
        " 정지",
        -9.77398404949174
      ],
      [
        " 국민",
        -9.774629166934922
      ],
      [
        "한다)를",
        -9.775235860311902
      ],
      [
        "t",
        -9.775995858128834
      ],
      [
        "구조",
        -9.776031189257075
      ],
      [
        "자와",
        -9.776792252140435
      ],
      [
        "\"란",
        -9.777403574663987
      ],
      [
        " 결합",
        -9.777630629150462
      ],
      [
        " 청구에",
        -9.777943720086032
      ],
      [
        " 쉽",
        -9.778962239957451
      ],
      [
        "기간이",
        -9.77941215728802
      ],
      [
        "공정거래에",
        -9.779617834431978
      ],
      [
        " 정상",
        -9.779643147318376
      ],
      [
        " 제31조",
        -9.780284616449835
      ],
      [
        "관리에",
        -9.780687063896618
      ],
      [
        "피고들은",
        -9.78079391469263
      ],
      [
        " 명백",
        -9.781284719587898
      ],
      [
        "액을",
        -9.781322309247708
      ],
      [
        "단체",
        -9.78277704508546
      ],
      [
        " 재화",
        -9.7834454216347
      ],
      [
        " 질병",
        -9.783647173768829
      ],
      [
        " 부산",
        -9.78493973690539
      ],
      [
        " 시가",
        -9.78565746871272
      ],
      [
        " 아울러",
        -9.787636447878482
      ],
      [
        " 사용하여",
        -9.78784007238292
      ],
      [
        " 1983.",
        -9.788025048625066
      ],
      [
        "주식을",
        -9.788714244457418
      ],
      [
        " (4)",
        -9.78895579408504
      ],
      [
        " 점검",
        -9.78915163678118
      ],
      [
        " 반하여",
        -9.790011990052417
      ],
      [
        " 품질",
        -9.790048092264502
      ],
      [
        " 추천",
        -9.790052224557543
      ],
      [
        " 피고인에",
        -9.791851335368412
      ],
      [
        "사무를",
        -9.792111943063684
      ],
      [
        " 사정들",
        -9.794520011728924
      ],
      [
        "책",
        -9.795109277964556
      ],
      [
        " 예금",
        -9.795343024358573
      ],
      [
        "팀",
        -9.796089373078251
      ],
      [
        "활동을",
        -9.79616751144254
      ],
      [
        " 지방세법",
        -9.796285532224871
      ],
      [
        " 인용한",
        -9.79728939972166
      ],
      [
        " 제34조",
        -9.797803401254384
      ],
      [
        "사전에",
        -9.79791912131296
      ],
      [
        " 상속",
        -9.79794470458676
      ],
      [
        " 상황",
        -9.798583849808324
      ],
      [
        " 9,",
        -9.800468366058974
      ],
      [
        "시행령",
        -9.801702158591407
      ],
      [
        " 면허",
        -9.802404880508186
      ],
      [
        "공무원",
        -9.802509662826417
      ],
      [
        " 이른바",
        -9.802629722667046
      ],
      [
        " 큰",
        -9.802783476262698
      ],
      [
        " 제2호,",
        -9.802841041155611
      ],
      [
        " 다투",
        -9.80341531420214
      ],
      [
        "채권을",
        -9.803653398448072
      ],
      [
        " 개",
        -9.803670112693956
      ],
      [
        " 산업",
        -9.804273974972956
      ],
      [
        "취소를",
        -9.805210325027923
      ],
      [
        " 제40조",
        -9.805803754036774
      ],
      [
        " 중앙",
        -9.806235719947734
      ],
      [
        " 달성",
        -9.806612915858636
      ],
      [
        " 심판",
        -9.807185732511254
      ],
      [
        "면적",
        -9.807304656742252
      ],
      [
        " 저",
        -9.808544112726318
      ],
      [
        " 환급",
        -9.80889533028033
      ],
      [
        "크",
        -9.809794478609298
      ],
      [
        "(1)",
        -9.811606220277865
      ],
      [
        " 매년",
        -9.81237364977292
      ],
      [
        " 본인",
        -9.81274773860951
      ],
      [
        " 가지는",
        -9.812812461758163
      ],
      [
        " 감경",
        -9.813565938268022
      ],
      [
        " 관계에",
        -9.81370683119208
      ],
      [
        " 이용에",
        -9.81374021516815
      ],
      [
        " 일반행정",
        -9.813786675090396
      ],
      [
        " 행사할",
        -9.813872831527627
      ],
      [
        " 기초로",
        -9.81453612485548
      ],
      [
        " 지난",
        -9.815030200383337
      ],
      [
        "1부터",
        -9.816182649766588
      ],
      [
        "하였는지",
        -9.816308908846304
      ],
      [
        " 경찰",
        -9.816355172909285
      ],
      [
        " 포기",
        -9.816869087223624
      ],
      [
        "o",
        -9.817322100457922
      ],
      [
        " 경료",
        -9.817488525166093
      ],
      [
        " 아니하다.",
        -9.817964151784343
      ],
      [
        " 특별법",
        -9.818370780698812
      ],
      [
        "29",
        -9.818373250451316
      ],
      [
        " 감액",
        -9.819092869221416
      ],
      [
        "설비",
        -9.819589396967997
      ],
      [
        "하려면",
        -9.819626365408745
      ],
      [
        "제3항",
        -9.819710217528796
      ],
      [
        " 제42조",
        -9.820612684799997
      ],
      [
        "보건대,",
        -9.821588481579028
      ],
      [
        "만이",
        -9.822002912189584
      ],
      [
        "립",
        -9.822036414063074
      ],
      [
        "1,",
        -9.822125138357762
      ],
      [
        " 향후",
        -9.822973743019528
      ],
      [
        " 남",
        -9.823071887853224
      ],
      [
        " 사실인정",
        -9.82350794837009
      ],
      [
        " 보험",
        -9.823641109567326
      ],
      [
        " 불구하고,",
        -9.823963175350029
      ],
      [
        " 패소",
        -9.825174363214485
      ],
      [
        "시켜",
        -9.82523699746505
      ],
      [
        "승인",
        -9.825580607824763
      ],
      [
        " 감",
        -9.825582019391732
      ],
      [
        "채",
        -9.8255989973789
      ],
      [
        "B",
        -9.82578680952488
      ],
      [
        "레",
        -9.825819388767671
      ],
      [
        " 항소인",
        -9.82583818455309
      ],
      [
        "(시행일)",
        -9.82628616972032
      ],
      [
        " 받아들이",
        -9.827058263495244
      ],
      [
        " 규정하는",
        -9.827509820189391
      ],
      [
        "이행하지",
        -9.8278751536175
      ],
      [
        " 미만",
        -9.828338544489249
      ],
      [
        " 인정되지",
        -9.828766171496278
      ],
      [
        " 감정",
        -9.82914799593564
      ],
      [
        "금융",
        -9.82919119648141
      ],
      [
        "시키는",
        -9.829390259349278
      ],
      [
        "재산",
        -9.82964791180335
      ],
      [
        " 모",
        -9.83061112670674
      ],
      [
        " 사정만으로",
        -9.831200674060028
      ],
      [
        "작업",
        -9.83232566092979
      ],
      [
        " 생각",
        -9.832795118842403
      ],
      [
        " 출입",
        -9.833008032445356
      ],
      [
        " 진술조서",
        -9.833050607085028
      ],
      [
        "시킬",
        -9.83427409778619
      ],
      [
        " 말소",
        -9.83444920935612
      ],
      [
        " 의사표시",
        -9.835091151941032
      ],
      [
        "들에",
        -9.835505138997386
      ],
      [
        " 판단할",
        -9.835554937939651
      ],
      [
        " 변경된",
        -9.835762446616036
      ],
      [
        " 병원",
        -9.83678939461827
      ],
      [
        " 2와",
        -9.837177427067608
      ],
      [
        "매우",
        -9.838290033611957
      ],
      [
        " 위법하다고",
        -9.83834536057594
      ],
      [
        " 종합",
        -9.83895771822557
      ],
      [
        "서는",
        -9.83933916751694
      ],
      [
        "27",
        -9.839422043746495
      ],
      [
        " 사정에",
        -9.840012306752003
      ],
      [
        " 의사에",
        -9.840226516812969
      ],
      [
        " 설치된",
        -9.840400518775152
      ],
      [
        "심리를",
        -9.840717771105032
      ],
      [
        "이며,",
        -9.840776284014664
      ],
      [
        "수는",
        -9.84136738955219
      ],
      [
        " 정산",
        -9.841501045348986
      ],
      [
        " 제45조",
        -9.841670794483246
      ],
      [
        "수당",
        -9.842272014177512
      ],
      [
        " 제8",
        -9.843459317996208
      ],
      [
        "통지를",
        -9.843483842965076
      ],
      [
        " 참작",
        -9.843516369789514
      ],
      [
        " 피심인들",
        -9.844240832990272
      ],
      [
        "조치",
        -9.844543946224237
      ],
      [
        " 의심",
        -9.844714848289522
      ],
      [
        "익",
        -9.844823660468691
      ],
      [
        " 초과하여",
        -9.845256428106357
      ],
      [
        " 공표",
        -9.845778730432706
      ],
      [
        "으로서의",
        -9.846046339229927
      ],
      [
        " 변동",
        -9.846975481036084
      ],
      [
        " 금전",
        -9.847028598931775
      ],
      [
        " 7월",
        -9.847206031006277
      ],
      [
        " 3월",
        -9.847709909472986
      ],
      [
        " 30",
        -9.8477809870463
      ],
      [
        "명령을",
        -9.847980610727893
      ],
      [
        "추가로",
        -9.84944288607091
      ],
      [
        " 근거로",
        -9.850133952950411
      ],
      [
        " 신탁",
        -9.85041759622946
      ],
      [
        "주장을",
        -9.850610048448871
      ],
      [
        " 수급사업자",
        -9.850731015046184
      ],
      [
        " 제2점",
        -9.851478491958131
      ],
      [
        "원심판결에는",
        -9.851832722142992
      ],
      [
        " 생긴",
        -9.852640696201863
      ],
      [
        "「",
        -9.852697677006756
      ],
      [
        "니",
        -9.853596081646426
      ],
      [
        "직무를",
        -9.853656574035051
      ],
      [
        "까지는",
        -9.854060838979214
      ],
      [
        " 교환",
        -9.854578817649625
      ],
      [
        " 정당하고",
        -9.855025546857147
      ],
      [
        " 지정된",
        -9.85589232133409
      ],
      [
        " 소관",
        -9.855941716331245
      ],
      [
        " 근저당권",
        -9.856668844880394
      ],
      [
        " 공정",
        -9.857450219264814
      ],
      [
        " 제4항에",
        -9.858231693834227
      ],
      [
        "D",
        -9.85872550930707
      ],
      [
        "받으려는",
        -9.858845061201771
      ],
      [
        "하자가",
        -9.858852680946908
      ],
      [
        " 2019.",
        -9.858858555616166
      ],
      [
        " 1984.",
        -9.859301236071316
      ],
      [
        " 현장",
        -9.859331040772153
      ],
      [
        " 1회",
        -9.859917252967662
      ],
      [
        "다른",
        -9.860020523240877
      ],
      [
        " 효과",
        -9.860229260060386
      ],
      [
        " 제36조",
        -9.861844766728716
      ],
      [
        " 1억",
        -9.861987542649864
      ],
      [
        "명령",
        -9.862529056365108
      ],
      [
        " 한다",
        -9.863288497132215
      ],
      [
        "하였음에도",
        -9.8634029568445
      ],
      [
        "단순히",
        -9.863524172140195
      ],
      [
        " 있기",
        -9.863593792923782
      ],
      [
        "락",
        -9.864087738509776
      ],
      [
        " 92",
        -9.864420037059968
      ],
      [
        "중앙행정기관의",
        -9.864621202761969
      ],
      [
        " 들고",
        -9.864711430789573
      ],
      [
        " 1988.",
        -9.864918509721708
      ],
      [
        "목적",
        -9.865165198021396
      ],
      [
        " 조건",
        -9.865415899962713
      ],
      [
        "등에게",
        -9.865587193298389
      ],
      [
        "지정",
        -9.865842368695947
      ],
      [
        " 나타난",
        -9.866646310041691
      ],
      [
        " 원래",
        -9.86695076652644
      ],
      [
        " 이들",
        -9.867156765125571
      ],
      [
        " 중소기업",
        -9.867498101541116
      ],
      [
        " 반대",
        -9.868196342530306
      ],
      [
        " 피항소인",
        -9.868894021869435
      ],
      [
        " 항소취지",
        -9.869156110416125
      ],
      [
        "고시하는",
        -9.869177686473208
      ],
      [
        " 사항이",
        -9.86919663914469
      ],
      [
        "제2항에",
        -9.869284762239234
      ],
      [
        "10.",
        -9.869289462026824
      ],
      [
        " 법률」에",
        -9.869822008811733
      ],
      [
        "쪽",
        -9.870639515754766
      ],
      [
        " 위조",
        -9.870642886654164
      ],
      [
        " 매",
        -9.870890436323492
      ],
      [
        "x",
        -9.871939878448206
      ],
      [
        " 당심",
        -9.872655989816757
      ],
      [
        "사업에",
        -9.873172928835952
      ],
      [
        " 91",
        -9.873386885677824
      ],
      [
        " 지급하여야",
        -9.873502136327762
      ],
      [
        " 피고인들이",
        -9.873665454402287
      ],
      [
        "코",
        -9.873973260486627
      ],
      [
        " 단순",
        -9.874105527534486
      ],
      [
        " 의견",
        -9.876998216323878
      ],
      [
        " 잘",
        -9.877072213155644
      ],
      [
        " 예비적",
        -9.877116501448956
      ],
      [
        " 부당",
        -9.878325549087917
      ],
      [
        " 교원",
        -9.878751793415416
      ],
      [
        " 적용할",
        -9.879190056604653
      ],
      [
        " 회계",
        -9.880182187505447
      ],
      [
        " 기재한",
        -9.88038146109883
      ],
      [
        " 조세",
        -9.880392254805244
      ],
      [
        "률",
        -9.88086688738192
      ],
      [
        " 회신",
        -9.881647498598522
      ],
      [
        " 명의",
        -9.881815725983992
      ],
      [
        "망",
        -9.88462502737638
      ],
      [
        " 지상",
        -9.88542965573044
      ],
      [
        "착",
        -9.885855525187702
      ],
      [
        "g",
        -9.886000802175436
      ],
      [
        " 공무원의",
        -9.88611112815904
      ],
      [
        "당사자가",
        -9.886236985227308
      ],
      [
        " 수정",
        -9.886508088585884
      ],
      [
        " 타인",
        -9.88676285462743
      ],
      [
        " 신뢰",
        -9.887017819866784
      ],
      [
        " 갈음",
        -9.887115711751916
      ],
      [
        " 그들",
        -9.88733566701921
      ],
      [
        "로써",
        -9.887365506862828
      ],
      [
        "자동차",
        -9.888571943393826
      ],
      [
        "사무",
        -9.888632945295956
      ],
      [
        " 심리·판단",
        -9.88879761466445
      ],
      [
        "변",
        -9.888883619659524
      ],
      [
        "내역",
        -9.88936014231422
      ],
      [
        " 1985.",
        -9.889624799584409
      ],
      [
        " 불법행위",
        -9.889928546993094
      ],
      [
        " 목",
        -9.88995148327348
      ],
      [
        "(2)",
        -9.890162845064296
      ],
      [
        " 명시",
        -9.89113928354032
      ],
      [
        " 제48조",
        -9.89147726323526
      ],
      [
        " 상계",
        -9.892036629249851
      ],
      [
        "채권",
        -9.892397624364255
      ],
      [
        "계획을",
        -9.893055598487528
      ],
      [
        " 보인다.",
        -9.8930815057597
      ],
      [
        " 훼손",
        -9.893283250577916
      ],
      [
        " 형의",
        -9.893294013693946
      ],
      [
        " 포함한다.",
        -9.894305787654504
      ],
      [
        " 수준",
        -9.894388132714488
      ],
      [
        " 거절",
        -9.89447775999553
      ],
      [
        "자금",
        -9.894494645319028
      ],
      [
        "윤",
        -9.894606961715134
      ],
      [
        "(현행",
        -9.894759855939451
      ],
      [
        "과정에서",
        -9.895795359437818
      ],
      [
        "원은",
        -9.89674868570591
      ],
      [
        " 국민의",
        -9.89760642442182
      ],
      [
        "행정",
        -9.89827663840187
      ],
      [
        " 공동주택",
        -9.898335072091816
      ],
      [
        "하였다면",
        -9.898619337746052
      ],
      [
        " 산정한",
        -9.898808876024884
      ],
      [
        " 상당하다.",
        -9.899378536015572
      ],
      [
        " 최고",
        -9.899545982026476
      ],
      [
        " 장비",
        -9.899573510538657
      ],
      [
        "기관명",
        -9.89968110788548
      ],
      [
        " 양수",
        -9.899829382335882
      ],
      [
        "만으로",
        -9.900417787802857
      ],
      [
        "달",
        -9.901338279309895
      ],
      [
        "거래를",
        -9.90138308782144
      ],
      [
        " 납입",
        -9.901595175307692
      ],
      [
        " 없",
        -9.902305866851336
      ],
      [
        " 소음",
        -9.902563169916451
      ],
      [
        " 21",
        -9.903117716235723
      ],
      [
        " 금융",
        -9.90463044577162
      ],
      [
        " 가능성",
        -9.905223792062827
      ],
      [
        " 가중",
        -9.905309762310624
      ],
      [
        "방송",
        -9.905544636251609
      ],
      [
        " 양도소득세",
        -9.905566856227056
      ],
      [
        " 소속기관",
        -9.905796514237636
      ],
      [
        " 부과처분",
        -9.90612724791783
      ],
      [
        " 귀",
        -9.906365374383654
      ],
      [
        " 근로자가",
        -9.906927261082272
      ],
      [
        " 토지가",
        -9.90718478560971
      ],
      [
        " 입찰에",
        -9.907743484994878
      ],
      [
        " 부담하는",
        -9.908236188001233
      ],
      [
        "사유를",
        -9.908439260628434
      ],
      [
        "주의",
        -9.909278087324516
      ],
      [
        " 행위의",
        -9.909842647621806
      ],
      [
        " 단지",
        -9.909881313042526
      ],
      [
        "제1항은",
        -9.910073233126546
      ],
      [
        " 아니하거나",
        -9.91040098837151
      ],
      [
        " 위법한",
        -9.910571125770565
      ],
      [
        " 신체",
        -9.910688256843873
      ],
      [
        " 화물",
        -9.91101465057512
      ],
      [
        " 의료기관",
        -9.911089873685247
      ],
      [
        " 목적이",
        -9.911238046132809
      ],
      [
        "내용:",
        -9.91125429893347
      ],
      [
        "조합의",
        -9.912710858237018
      ],
      [
        "곧",
        -9.912943933346908
      ],
      [
        " 전제",
        -9.913481273015474
      ],
      [
        " 강제",
        -9.91433613466543
      ],
      [
        " 기대",
        -9.91459115279596
      ],
      [
        "위원",
        -9.914650617186629
      ],
      [
        " 대학",
        -9.915854470232969
      ],
      [
        " 지정상품",
        -9.916112832483511
      ],
      [
        " 출연",
        -9.916532304078968
      ],
      [
        "것도",
        -9.917185006012309
      ],
      [
        " 제출된",
        -9.917208829277875
      ],
      [
        "임의로",
        -9.917275683983169
      ],
      [
        " 명백한",
        -9.917531007558434
      ],
      [
        " 제10",
        -9.918186041758087
      ],
      [
        " 재직",
        -9.91822914397329
      ],
      [
        " 제39조",
        -9.9185103592294
      ],
      [
        " 일반현황",
        -9.91852855454596
      ],
      [
        " 행정처분",
        -9.919259098111135
      ],
      [
        " 절차에",
        -9.919272830665458
      ],
      [
        " 피심인들은",
        -9.919679964487722
      ],
      [
        "(지번",
        -9.919925127515183
      ],
      [
        " 보호법",
        -9.92022177764708
      ],
      [
        "조건",
        -9.920468759488266
      ],
      [
        " 피고인들",
        -9.92051872028782
      ],
      [
        "격",
        -9.920755871101669
      ],
      [
        " 발전",
        -9.920828662340844
      ],
      [
        " 자기의",
        -9.920901157969867
      ],
      [
        " 이해",
        -9.921429106518945
      ],
      [
        " 통합",
        -9.921440997228869
      ],
      [
        " 앞",
        -9.92181702379425
      ],
      [
        " 시정조치",
        -9.92211742504533
      ],
      [
        " 세부",
        -9.922298730503844
      ],
      [
        " 알게",
        -9.92247182107353
      ],
      [
        "2,",
        -9.922867531956893
      ],
      [
        " 행위로",
        -9.922884092757274
      ],
      [
        "목적을",
        -9.923004168652191
      ],
      [
        " 서명",
        -9.923600372115043
      ],
      [
        "되도록",
        -9.9253273922768
      ],
      [
        " 지배",
        -9.925411019360006
      ],
      [
        " 한정",
        -9.925426161564982
      ],
      [
        "연금",
        -9.92640486868612
      ],
      [
        " 1982.",
        -9.926863884357314
      ],
      [
        " 판단에",
        -9.927141479480062
      ],
      [
        " 고용노동부",
        -9.927206524194723
      ],
      [
        " 판",
        -9.927206945392149
      ],
      [
        " 6개월",
        -9.927535474067913
      ],
      [
        " 임시",
        -9.9284163545649
      ],
      [
        " 입주",
        -9.929084828819777
      ],
      [
        " 후보자",
        -9.929506703318118
      ],
      [
        " 않다",
        -9.929809648350671
      ],
      [
        "하였다가",
        -9.930017138218773
      ],
      [
        " 전취지",
        -9.93018752078573
      ],
      [
        "심의를",
        -9.930254325566048
      ],
      [
        " 게시",
        -9.930342163030684
      ],
      [
        " 1986.",
        -9.930550118701705
      ],
      [
        " 논지",
        -9.930584300682655
      ],
      [
        " 점포",
        -9.93102602254828
      ],
      [
        " 가사",
        -9.931201383522192
      ],
      [
        "취소",
        -9.931319773807198
      ],
      [
        " 바로",
        -9.931542444466908
      ],
      [
        " 못하고",
        -9.93170284440316
      ],
      [
        " 제기한",
        -9.931710954184998
      ],
      [
        " 공모하여",
        -9.93196520075105
      ],
      [
        "병원",
        -9.932378264432016
      ],
      [
        "적어도",
        -9.933567619331576
      ],
      [
        "세대",
        -9.934266708167822
      ],
      [
        "c",
        -9.934436437980237
      ],
      [
        " 유효",
        -9.93460035899438
      ],
      [
        "밀",
        -9.934725501231531
      ],
      [
        " 다르",
        -9.934905373589904
      ],
      [
        " 취업규칙",
        -9.935436454946606
      ],
      [
        " 정비",
        -9.935504642653468
      ],
      [
        "토지",
        -9.935693052086274
      ],
      [
        "방법을",
        -9.936733091477167
      ],
      [
        " 관계없이",
        -9.937075405192404
      ],
      [
        " 구입",
        -9.937329349761855
      ],
      [
        " 초",
        -9.938258655727546
      ],
      [
        " 하는지",
        -9.938404517430596
      ],
      [
        "대금을",
        -9.93905385474251
      ],
      [
        " 갖추어",
        -9.93913168550179
      ],
      [
        " 총괄",
        -9.939219741021848
      ],
      [
        " 경비",
        -9.939491912720872
      ],
      [
        " 견해",
        -9.939615302662128
      ],
      [
        " x",
        -9.94036030520636
      ],
      [
        " 것이나,",
        -9.94068266959899
      ],
      [
        "조치는",
        -9.940931453524344
      ],
      [
        "제품",
        -9.9415532664428
      ],
      [
        " 행정소송법",
        -9.941963653948852
      ],
      [
        " 체결하고",
        -9.94223958307279
      ],
      [
        "내용",
        -9.94224646353154
      ],
      [
        "습",
        -9.942358431561964
      ],
      [
        " 사실관계",
        -9.94276400346051
      ],
      [
        " 공유",
        -9.943397033174518
      ],
      [
        " 확대",
        -9.944065020434124
      ],
      [
        "00",
        -9.944171810448529
      ],
      [
        " 제46조",
        -9.944483612957928
      ],
      [
        "바,",
        -9.944583987383346
      ],
      [
        " 공소사실에",
        -9.945149359668902
      ],
      [
        "며",
        -9.945889519656545
      ],
      [
        " 불복",
        -9.946490722153602
      ],
      [
        "주식회사",
        -9.947487090914244
      ],
      [
        " 대하여,",
        -9.9482347073737
      ],
      [
        " 대출금",
        -9.948329246447493
      ],
      [
        " 있거나",
        -9.948511711536028
      ],
      [
        "명의",
        -9.94856947638819
      ],
      [
        "날",
        -9.948754683358068
      ],
      [
        " 지도",
        -9.94936589196465
      ],
      [
        " 소외인",
        -9.949373421001049
      ],
      [
        " 1명",
        -9.950663400986818
      ],
      [
        " 저해",
        -9.951229147793237
      ],
      [
        " 전까지",
        -9.952272391795503
      ],
      [
        " 특별법」",
        -9.95237849931207
      ],
      [
        " 제4항,",
        -9.952798017990316
      ],
      [
        " 매매대금",
        -9.952837674788196
      ],
      [
        " 열람",
        -9.953131713770931
      ],
      [
        " 등록상표",
        -9.953178796984
      ],
      [
        " 시기",
        -9.95327719158874
      ],
      [
        " 공시",
        -9.95347970442038
      ],
      [
        "제5항",
        -9.954763930160729
      ],
      [
        " 계속하여",
        -9.957780023398817
      ],
      [
        "증권",
        -9.958203055336078
      ],
      [
        "내용은",
        -9.958746181179125
      ],
      [
        " 많은",
        -9.958839166320535
      ],
      [
        " 재해",
        -9.95900876276543
      ],
      [
        "지도",
        -9.96017282573824
      ],
      [
        " 지연손해금",
        -9.960181781756116
      ],
      [
        "대학",
        -9.96040961340072
      ],
      [
        " 략)",
        -9.960549888612556
      ],
      [
        " 제2호에",
        -9.96068244080018
      ],
      [
        "들과",
        -9.961158065800523
      ],
      [
        "일로부터",
        -9.96147162210764
      ],
      [
        " 기초사실",
        -9.962040795586892
      ],
      [
        " 비율",
        -9.962441429608123
      ],
      [
        "업자",
        -9.962881989877022
      ],
      [
        " 제6항",
        -9.962922533496004
      ],
      [
        " 날로부터",
        -9.963740169606554
      ],
      [
        " 거주",
        -9.964139294289136
      ],
      [
        " 대가",
        -9.964821236154258
      ],
      [
        " 제9",
        -9.965529349998556
      ],
      [
        " 안에서",
        -9.96608143617937
      ],
      [
        " 인사",
        -9.966168656128698
      ],
      [
        " 1981.",
        -9.966384241294447
      ],
      [
        " 직전",
        -9.966794192486592
      ],
      [
        " 배당",
        -9.966814805477998
      ],
      [
        " S",
        -9.966982044141131
      ],
      [
        " 측정",
        -9.967380513782022
      ],
      [
        "입찰",
        -9.967483411575174
      ],
      [
        "원심은,",
        -9.967864748388829
      ],
      [
        " 사업계획",
        -9.968109342029695
      ],
      [
        " 방식",
        -9.968247088505102
      ],
      [
        " 근로",
        -9.968700850311832
      ],
      [
        " 장래",
        -9.969207522935143
      ],
      [
        "작",
        -9.969604682253708
      ],
      [
        " 제3조(",
        -9.970359843073645
      ],
      [
        "사실",
        -9.970388178923177
      ],
      [
        " 자백",
        -9.970995045122113
      ],
      [
        " 객관적",
        -9.971795203780776
      ],
      [
        " 제41조",
        -9.972118372359308
      ],
      [
        "보고",
        -9.972556747548582
      ],
      [
        "데에",
        -9.97266375935254
      ],
      [
        " 대부분",
        -9.97304019460939
      ],
      [
        "집행",
        -9.973083893714875
      ],
      [
        "건물을",
        -9.973467985371462
      ],
      [
        "보전",
        -9.97348910066374
      ],
      [
        " 보조",
        -9.973696008008083
      ],
      [
        "완",
        -9.973827447534982
      ],
      [
        "장을",
        -9.97423493552486
      ],
      [
        " 따르",
        -9.974694377662368
      ],
      [
        "득",
        -9.976446480290662
      ],
      [
        " 제외하고는",
        -9.97655002645156
      ],
      [
        " 손",
        -9.976599064869497
      ],
      [
        " 건물에",
        -9.977032823697051
      ],
      [
        "피고인들의",
        -9.977286572056546
      ],
      [
        " 보통",
        -9.977432931611126
      ],
      [
        " 시행규칙」",
        -9.978281310020735
      ],
      [
        "이외의",
        -9.9782873852994
      ],
      [
        " 국회",
        -9.978592259521715
      ],
      [
        "성이",
        -9.978950873509818
      ],
      [
        " 있으면",
        -9.980074734121818
      ],
      [
        " 제1항에서",
        -9.980218022256976
      ],
      [
        " 장기",
        -9.982051121955571
      ],
      [
        "경영",
        -9.982402096652716
      ],
      [
        "정상적인",
        -9.982443932687742
      ],
      [
        " 산출",
        -9.982624850889652
      ],
      [
        "요",
        -9.982978739272736
      ],
      [
        "er",
        -9.98397641644656
      ],
      [
        " 가압류",
        -9.984429515219343
      ],
      [
        " 외부",
        -9.984799106121214
      ],
      [
        "소득",
        -9.985865085585534
      ],
      [
        " 사용되는",
        -9.98619249462871
      ],
      [
        " 각자",
        -9.986315494849952
      ],
      [
        " 과세표준",
        -9.986446182396444
      ],
      [
        " 수수료",
        -9.986671513298017
      ],
      [
        "사업자의",
        -9.986768641869908
      ],
      [
        " 설시",
        -9.98678678347603
      ],
      [
        "증명서",
        -9.987168787649136
      ],
      [
        " 신문",
        -9.987187943928236
      ],
      [
        "말",
        -9.988823043099778
      ],
      [
        "디",
        -9.988847613745069
      ],
      [
        " 대리",
        -9.989356403651652
      ],
      [
        "로서의",
        -9.989789462157976
      ],
      [
        " 경험",
        -9.990407090502998
      ],
      [
        " 이사건",
        -9.990834048017078
      ],
      [
        "C",
        -9.991738219334886
      ],
      [
        "하였으므로,",
        -9.992521112511314
      ],
      [
        " 사기",
        -9.99261444412247
      ],
      [
        "표시",
        -9.99267416435119
      ],
      [
        " 적합",
        -9.993154792850625
      ],
      [
        "자료가",
        -9.993228773752609
      ],
      [
        " 아니고",
        -9.993656406514017
      ],
      [
        " 임",
        -9.994818668456103
      ],
      [
        " 등에서",
        -9.994884396883116
      ],
      [
        " 매월",
        -9.995582082776844
      ],
      [
        "자격을",
        -9.995850104273885
      ],
      [
        " 미칠",
        -9.996841482707016
      ],
      [
        "근거가",
        -9.996931079424009
      ],
      [
        " 외국인",
        -9.997144721604869
      ],
      [
        " 출자",
        -9.997170806363606
      ],
      [
        " 취",
        -9.99762963479072
      ],
      [
        " 직권으로",
        -9.997870189811652
      ],
      [
        " 회의",
        -9.99792332700703
      ],
      [
        " 정신적",
        -9.998158406836366
      ],
      [
        " 공제한",
        -9.998647240860286
      ],
      [
        " 합의가",
        -9.998836874274344
      ],
      [
        "기간에",
        -9.998923120840582
      ],
      [
        " 특허발명",
        -9.999310441880011
      ],
      [
        " 가공",
        -9.999751312968234
      ],
      [
        "증거를",
        -10.000993162441944
      ],
      [
        " 발주",
        -10.001753032150082
      ],
      [
        " 벗어나",
        -10.0022259551483
      ],
      [
        "학교",
        -10.0024073054868
      ],
      [
        " 정정",
        -10.002509431966658
      ],
      [
        "31",
        -10.002712083021445
      ],
      [
        " 없거나",
        -10.002795994501266
      ],
      [
        " 무효라고",
        -10.002970506676784
      ],
      [
        "제공",
        -10.003636161968153
      ],
      [
        "법리오해의",
        -10.003881440255482
      ],
      [
        " 있게",
        -10.005333687701482
      ],
      [
        " 형성",
        -10.00665700224559
      ],
      [
        "d",
        -10.007637550124867
      ],
      [
        " 의료",
        -10.008452112428108
      ],
      [
        "공급",
        -10.00847177080113
      ],
      [
        "n",
        -10.008998472387145
      ],
      [
        " 보유하고",
        -10.00918820223607
      ],
      [
        " 민",
        -10.009390617393317
      ],
      [
        " 지연",
        -10.009442569161768
      ],
      [
        "되었을",
        -10.00967635512042
      ],
      [
        "욱",
        -10.01097557604177
      ],
      [
        " 소멸시효",
        -10.011637152415618
      ],
      [
        " 있음에도",
        -10.012316483672084
      ],
      [
        " 명의신탁",
        -10.012689093372597
      ],
      [
        "40",
        -10.01307469294048
      ],
      [
        "재산을",
        -10.01335104079032
      ],
      [
        "됨으로써",
        -10.01347384612593
      ],
      [
        " 부인",
        -10.014261597822312
      ],
      [
        " 취지에서",
        -10.01429588341082
      ],
      [
        " 취소하고",
        -10.014776472206346
      ],
      [
        "제대로",
        -10.014837939636957
      ],
      [
        "구청장은",
        -10.015716822891854
      ],
      [
        " 파견",
        -10.016122439805711
      ],
      [
        " 배치",
        -10.016288613066436
      ],
      [
        " 소유권이전등기",
        -10.016423565467877
      ],
      [
        " 제5호",
        -10.01713525521485
      ],
      [
        "위원회는",
        -10.01717510633862
      ],
      [
        " 갱신",
        -10.01735801470487
      ],
      [
        " 3이",
        -10.01756942114134
      ],
      [
        " 주민",
        -10.018166827237712
      ],
      [
        "금을",
        -10.019226350501576
      ],
      [
        " 인근",
        -10.0193243207018
      ],
      [
        "제도의",
        -10.019681179971148
      ],
      [
        " 저장",
        -10.020127198517123
      ],
      [
        " 후,",
        -10.020894878132562
      ],
      [
        " 과실이",
        -10.021241180296682
      ],
      [
        " 10,",
        -10.021668972246664
      ],
      [
        " 사망한",
        -10.022741728197142
      ],
      [
        "향",
        -10.022773645250345
      ],
      [
        " 제43조",
        -10.023022762338693
      ],
      [
        "취득",
        -10.023732788673618
      ],
      [
        "확인할",
        -10.024100550338249
      ],
      [
        "제3자에게",
        -10.02447003733368
      ],
      [
        " +",
        -10.024700706181097
      ],
      [
        " 분배",
        -10.025962965942076
      ],
      [
        " 90",
        -10.026020345212718
      ],
      [
        " 전국",
        -10.026093569095616
      ],
      [
        " 것으로서,",
        -10.026541775268148
      ],
      [
        " 아니면",
        -10.027019022541708
      ],
      [
        "위반",
        -10.027027538402304
      ],
      [
        "조사를",
        -10.027185636409753
      ],
      [
        " 회복",
        -10.02836654327256
      ],
      [
        " 과장",
        -10.028416676628796
      ],
      [
        "탈",
        -10.028471283290685
      ],
      [
        " 지적",
        -10.03177048160347
      ],
      [
        "기를",
        -10.032296674320191
      ],
      [
        "행사",
        -10.03255339937422
      ],
      [
        " 배",
        -10.032885609719694
      ],
      [
        "(갑",
        -10.032949478062688
      ],
      [
        " 배우자",
        -10.032997184819674
      ],
      [
        "색",
        -10.033133514646202
      ],
      [
        " 품목",
        -10.033195587128152
      ],
      [
        "상황",
        -10.034225997043526
      ],
      [
        " 보완",
        -10.034277050446374
      ],
      [
        "등급",
        -10.034865943904745
      ],
      [
        " 얻은",
        -10.035692558767725
      ],
      [
        "원(",
        -10.035845544589987
      ],
      [
        " 도모",
        -10.036092263139963
      ],
      [
        " 제1호의",
        -10.036102492110546
      ],
      [
        " 조항",
        -10.036715198422408
      ],
      [
        " 소집",
        -10.03681551788171
      ],
      [
        " 송금",
        -10.03684852891937
      ],
      [
        "공정한",
        -10.036970520349568
      ],
      [
        " 정책",
        -10.037157295314532
      ],
      [
        " 제50조",
        -10.037361040058666
      ],
      [
        " 체결된",
        -10.037410229974958
      ],
      [
        " 제44조",
        -10.037889817418588
      ],
      [
        "20%의",
        -10.037915152031738
      ],
      [
        "경쟁을",
        -10.038037041510975
      ],
      [
        " P",
        -10.038038320748504
      ],
      [
        "총",
        -10.03926942988433
      ],
      [
        "기록",
        -10.039540875981864
      ],
      [
        "실질적인",
        -10.04001902596434
      ],
      [
        "피심인들의",
        -10.04084097062627
      ],
      [
        " 이르",
        -10.041019061169196
      ],
      [
        " 경력",
        -10.04193372210558
      ],
      [
        " 육성",
        -10.042131775294187
      ],
      [
        " 도면",
        -10.042948659721173
      ],
      [
        " 불과한",
        -10.043354268778014
      ],
      [
        "보상",
        -10.043639347059122
      ],
      [
        " 대가로",
        -10.04392605020108
      ],
      [
        " 주는",
        -10.044488754631947
      ],
      [
        " 분류",
        -10.045601564703352
      ],
      [
        "금액의",
        -10.04679048986496
      ],
      [
        " 1980.",
        -10.047071817186668
      ],
      [
        "마다",
        -10.047133215895393
      ],
      [
        "박",
        -10.047230269177833
      ],
      [
        " 비하여",
        -10.048406403994736
      ],
      [
        " 있었다.",
        -10.048990029866284
      ],
      [
        "되며,",
        -10.049518486083544
      ],
      [
        " 아니한다고",
        -10.05014064266228
      ],
      [
        " 최근",
        -10.050402847861635
      ],
      [
        "사고로",
        -10.050947834705031
      ],
      [
        "장비",
        -10.051774716361187
      ],
      [
        "보기는",
        -10.051872200640224
      ],
      [
        "업체",
        -10.052570337730677
      ],
      [
        " 위자료",
        -10.052717295959958
      ],
      [
        " 상가",
        -10.053057685885983
      ],
      [
        "채권의",
        -10.053381918837845
      ],
      [
        " 보험금",
        -10.053509717007092
      ],
      [
        "유지",
        -10.05354644133134
      ],
      [
        " 입금",
        -10.053723066792292
      ],
      [
        "권의",
        -10.053749074131671
      ],
      [
        " 요구하는",
        -10.053926291563137
      ],
      [
        " 4의",
        -10.054901049641163
      ],
      [
        "사람은",
        -10.055028680225323
      ],
      [
        "제1항제1호",
        -10.055077833100952
      ],
      [
        " 영위하는",
        -10.055188685325955
      ],
      [
        "영업",
        -10.055476824077502
      ],
      [
        " 제47조",
        -10.055565635801216
      ],
      [
        " 적은",
        -10.056027599126017
      ],
      [
        " 인력",
        -10.056084385630673
      ],
      [
        "건,",
        -10.056338377421028
      ],
      [
        " 파악",
        -10.058556620809526
      ],
      [
        "견",
        -10.05902316688744
      ],
      [
        "신청서를",
        -10.059269172327454
      ],
      [
        " 2개",
        -10.059635991917943
      ],
      [
        " 대통령",
        -10.060376403701008
      ],
      [
        " 부합",
        -10.060530359236203
      ],
      [
        " 하여도",
        -10.060742336061743
      ],
      [
        " 촉진",
        -10.061957412962869
      ],
      [
        " 피고로부터",
        -10.063001071432844
      ],
      [
        "장과",
        -10.06316026428321
      ],
      [
        " 부분이",
        -10.063249300570392
      ],
      [
        "세무서장",
        -10.06332541415046
      ],
      [
        " 누락",
        -10.063461018186
      ],
      [
        " 판단하여",
        -10.064637885070423
      ],
      [
        " 청소년",
        -10.064697677141057
      ],
      [
        " 살펴보면",
        -10.064807724456749
      ],
      [
        " 판단된다.",
        -10.064925862066776
      ],
      [
        "물을",
        -10.065177652659209
      ],
      [
        " 동인",
        -10.067037566238772
      ],
      [
        " 임명",
        -10.0672566348573
      ],
      [
        " 도시정비법",
        -10.067324678027653
      ],
      [
        " 곱",
        -10.067626784754122
      ],
      [
        "장치",
        -10.067944053009391
      ],
      [
        " 수급사업자에게",
        -10.068467026154314
      ],
      [
        " 엄격",
        -10.069548674132356
      ],
      [
        "증명하는",
        -10.070935532217264
      ],
      [
        "해서",
        -10.070969468230548
      ],
      [
        " 출원",
        -10.071121358696445
      ],
      [
        "균",
        -10.071883389511193
      ],
      [
        "브",
        -10.072176918774876
      ],
      [
        "측",
        -10.072442628309968
      ],
      [
        "회사와",
        -10.07286912879526
      ],
      [
        " 발명",
        -10.07303605750479
      ],
      [
        " 어렵고,",
        -10.073149348263838
      ],
      [
        "지급받은",
        -10.0731569519665
      ],
      [
        "채무자가",
        -10.073196869128097
      ],
      [
        "기준에",
        -10.073541364705662
      ],
      [
        "엔",
        -10.073611411144144
      ],
      [
        " 합의에",
        -10.073643366203513
      ],
      [
        "능",
        -10.073896610401365
      ],
      [
        " 6개월이",
        -10.074643317653525
      ],
      [
        "충",
        -10.075628194505144
      ],
      [
        "정할",
        -10.07565884862966
      ],
      [
        "2조",
        -10.076863340560212
      ],
      [
        " 제2항은",
        -10.07759175104478
      ],
      [
        "처분에",
        -10.078243901305024
      ],
      [
        "암",
        -10.078566816284486
      ],
      [
        "이행을",
        -10.078810936289212
      ],
      [
        " 주위적",
        -10.079219606969676
      ],
      [
        " 작성된",
        -10.07937677161867
      ],
      [
        "호와",
        -10.079518635175312
      ],
      [
        " 원심결",
        -10.07974091512138
      ],
      [
        "조직",
        -10.079886524230746
      ],
      [
        " 증거로",
        -10.079916960159556
      ],
      [
        " 말하며,",
        -10.080242632110757
      ],
      [
        "한다(대법원",
        -10.080550952501774
      ],
      [
        " 선출",
        -10.080801195993672
      ],
      [
        "자체가",
        -10.08124193703433
      ],
      [
        "경부터",
        -10.081533341969028
      ],
      [
        " 제6호",
        -10.082509885083484
      ],
      [
        " 많",
        -10.082715932295413
      ],
      [
        " 계약에",
        -10.083310171152911
      ],
      [
        " 가맹본부",
        -10.08346130689674
      ],
      [
        "설령",
        -10.08348931639432
      ],
      [
        " 공모",
        -10.084148118537932
      ],
      [
        "3조",
        -10.084350647840758
      ],
      [
        " 제53조",
        -10.084620034635035
      ],
      [
        " 지하",
        -10.08475330844572
      ],
      [
        " 별개의",
        -10.084876184044488
      ],
      [
        " 사회적",
        -10.084964104289856
      ],
      [
        "등기를",
        -10.085011513372546
      ],
      [
        "의2제1항",
        -10.085103000079464
      ],
      [
        " 원인이",
        -10.08521397993643
      ],
      [
        " 보상금",
        -10.086004240207838
      ],
      [
        " 편입",
        -10.086195699580152
      ],
      [
        " 배분",
        -10.086224728723032
      ],
      [
        " 송부",
        -10.086309722791617
      ],
      [
        " 부당이득",
        -10.086644498141077
      ],
      [
        "형을",
        -10.087964255496765
      ],
      [
        " 25",
        -10.0889242795142
      ],
      [
        " 소재지",
        -10.088951540571871
      ],
      [
        " 주의의무",
        -10.089039766701736
      ],
      [
        " 관세",
        -10.089300663086911
      ],
      [
        " 가족",
        -10.089492965569592
      ],
      [
        " 남용",
        -10.089702801440628
      ],
      [
        " 94",
        -10.090279660679808
      ],
      [
        " 선거운동",
        -10.090316967419405
      ],
      [
        " 통",
        -10.090490336333785
      ],
      [
        " 적시",
        -10.090532203061857
      ],
      [
        " 게재",
        -10.09099373328406
      ],
      [
        "1호로",
        -10.091513657573724
      ],
      [
        "직원",
        -10.091947068962202
      ],
      [
        "결과가",
        -10.092061998254245
      ],
      [
        " 학생",
        -10.092107836468053
      ],
      [
        " 된다고",
        -10.092389207583071
      ],
      [
        " 증여세",
        -10.09281403609542
      ],
      [
        " 한다)은",
        -10.092867759242852
      ],
      [
        " 제57조",
        -10.093130237571543
      ],
      [
        "이므로,",
        -10.093233325389145
      ],
      [
        "공사의",
        -10.095761136554984
      ],
      [
        " 실현",
        -10.095872112402786
      ],
      [
        " 영위",
        -10.096108577153176
      ],
      [
        " 폭행",
        -10.096443740039422
      ],
      [
        " 해당한다)",
        -10.096798946327528
      ],
      [
        " 조건으로",
        -10.09713272252644
      ],
      [
        " 높이",
        -10.097219252627736
      ],
      [
        " 약속어음",
        -10.097320769760412
      ],
      [
        " 어렵다고",
        -10.097355261249945
      ],
      [
        " 2020.",
        -10.097429918084988
      ],
      [
        " 건강",
        -10.09756196142661
      ],
      [
        " 적절",
        -10.098953647224086
      ],
      [
        " 않",
        -10.09918444332695
      ],
      [
        "급여",
        -10.099504994754
      ],
      [
        "백",
        -10.099698477819665
      ],
      [
        "정책",
        -10.099793655344142
      ],
      [
        "구분에",
        -10.100339939430976
      ],
      [
        "전문",
        -10.100704374913338
      ],
      [
        " 제49조",
        -10.100712605930088
      ],
      [
        " 위촉",
        -10.100855471574867
      ],
      [
        ";",
        -10.100964512960442
      ],
      [
        "제1항부터",
        -10.100983838709896
      ],
      [
        "이로써",
        -10.101796360705654
      ],
      [
        " 공소",
        -10.102726163581636
      ],
      [
        "기간은",
        -10.103057717295206
      ],
      [
        " 3개월",
        -10.10340962348377
      ],
      [
        " 것이니",
        -10.103510745991882
      ],
      [
        "(1",
        -10.103681854912054
      ],
      [
        "씩",
        -10.10390108142069
      ],
      [
        " 처한다.",
        -10.104175846800016
      ],
      [
        " 해당한다",
        -10.104336225591853
      ],
      [
        "이어서",
        -10.104627820562529
      ],
      [
        "자,",
        -10.10578542259241
      ],
      [
        "자격",
        -10.105815849537398
      ],
      [
        " 전원합의체",
        -10.106492245868388
      ],
      [
        "프",
        -10.106536702215744
      ],
      [
        "증거들을",
        -10.106802902560087
      ],
      [
        " 병",
        -10.108161089892958
      ],
      [
        " 서울고등법원에",
        -10.108634722817092
      ],
      [
        " 확정한",
        -10.108645331166478
      ],
      [
        "책임",
        -10.108712552026905
      ],
      [
        " 제거",
        -10.108727115670597
      ],
      [
        " of",
        -10.108731711557244
      ],
      [
        " 필요성",
        -10.10874315534046
      ],
      [
        " 전화",
        -10.108931031117494
      ],
      [
        "?",
        -10.10917487027866
      ],
      [
        " 기계",
        -10.110000667300389
      ],
      [
        " 처분이",
        -10.110180283049411
      ],
      [
        " 부품",
        -10.110840664152294
      ],
      [
        " 둘",
        -10.111056330751229
      ],
      [
        "제2항의",
        -10.111558297253088
      ],
      [
        " 고정",
        -10.111627056830969
      ],
      [
        " 용도로",
        -10.111627792895078
      ],
      [
        " 시정",
        -10.111785284801137
      ],
      [
        "흥",
        -10.113276165146836
      ],
      [
        " 홍보",
        -10.113366462531456
      ],
      [
        "가스",
        -10.113772330588006
      ],
      [
        " 혼인",
        -10.114546717516069
      ],
      [
        "죄에",
        -10.11575290446281
      ],
      [
        " 충당",
        -10.11579445489311
      ],
      [
        " 재정",
        -10.11616081540363
      ],
      [
        "검사를",
        -10.116672307336218
      ],
      [
        "설치",
        -10.117163955239018
      ],
      [
        " 할인",
        -10.11752218452156
      ],
      [
        " 프로그램",
        -10.117554285630098
      ],
      [
        " 특례법",
        -10.118100010890682
      ],
      [
        " 찾아",
        -10.118306662794158
      ],
      [
        "원)",
        -10.118537758488502
      ],
      [
        " 담보로",
        -10.118789693057671
      ],
      [
        " 도래",
        -10.118805709771486
      ],
      [
        " 타당하다.",
        -10.118843424684131
      ],
      [
        " 고소",
        -10.119048439159544
      ],
      [
        " 규정하면서",
        -10.119443767544086
      ],
      [
        " 재항고인",
        -10.119867567281956
      ],
      [
        "종합",
        -10.120044665253904
      ],
      [
        "다는",
        -10.120056544331495
      ],
      [
        " 3에게",
        -10.12030998823368
      ],
      [
        " 판매하는",
        -10.121017912213505
      ],
      [
        " 안전관리",
        -10.121270372335363
      ],
      [
        "아파트",
        -10.121667031230883
      ],
      [
        " 산림",
        -10.121881803323769
      ],
      [
        " 국세기본법",
        -10.121995637366467
      ],
      [
        " 2015년",
        -10.122021289447922
      ],
      [
        "장소",
        -10.122098076534654
      ],
      [
        " 2010년",
        -10.122134385822608
      ],
      [
        " 미지급",
        -10.12213886761474
      ],
      [
        "연구",
        -10.12245672482542
      ],
      [
        " 적정",
        -10.122763928666952
      ],
      [
        " 비밀",
        -10.122856611541112
      ],
      [
        "점은",
        -10.123196861299755
      ],
      [
        " 같으므로",
        -10.123291872261715
      ],
      [
        " 직업",
        -10.123408225584535
      ],
      [
        "작업을",
        -10.123586724123449
      ],
      [
        " 폐기물",
        -10.124130807877124
      ],
      [
        "긴",
        -10.124890429906548
      ],
      [
        " 2014년",
        -10.125016810082652
      ],
      [
        " 대행",
        -10.12577625088739
      ],
      [
        " 날인",
        -10.125841978144727
      ],
      [
        " 설치하는",
        -10.12635741208022
      ],
      [
        "탄",
        -10.12644845129728
      ],
      [
        " 2012년",
        -10.1270911680485
      ],
      [
        "검사가",
        -10.127102816523688
      ],
      [
        "채권자가",
        -10.127338986075944
      ],
      [
        " 증언에",
        -10.128058679101434
      ],
      [
        " 훈련",
        -10.128381625715091
      ],
      [
        " 공사대금",
        -10.128412773526811
      ],
      [
        " 둔",
        -10.129423059035654
      ],
      [
        " 적절한",
        -10.1302870487708
      ],
      [
        "법원은",
        -10.1305042468325
      ],
      [
        " 법인이",
        -10.1305962976922
      ],
      [
        " 공탁",
        -10.130743452696755
      ],
      [
        "플",
        -10.13081583487079
      ],
      [
        "식품",
        -10.131288723917038
      ],
      [
        "a",
        -10.13175911632426
      ],
      [
        "으로써",
        -10.131801206687806
      ],
      [
        " 허위의",
        -10.13200963633645
      ],
      [
        "기회를",
        -10.13247203996063
      ],
      [
        " 안전성",
        -10.133354056030052
      ],
      [
        "소송",
        -10.133759145558278
      ],
      [
        " 10년",
        -10.134156905943383
      ],
      [
        "하면서,",
        -10.13450548584993
      ],
      [
        " 신고한",
        -10.134630566658869
      ],
      [
        "1로부터",
        -10.134714980663269
      ],
      [
        " 협력",
        -10.13481325240256
      ],
      [
        " 상태에",
        -10.134846085614557
      ],
      [
        "례",
        -10.135208688316526
      ],
      [
        "용지",
        -10.135296942593175
      ],
      [
        " 아니므로",
        -10.135655116534808
      ],
      [
        " 완전",
        -10.137030094293484
      ],
      [
        "행위의",
        -10.137368078185462
      ],
      [
        " 2월",
        -10.137605367215436
      ],
      [
        " 소장",
        -10.13781809349671
      ],
      [
        " 주장하나,",
        -10.138283500058971
      ],
      [
        "대학교",
        -10.138342299931711
      ],
      [
        "압",
        -10.13901397736432
      ],
      [
        "계약의",
        -10.139055017237084
      ],
      [
        "G",
        -10.13909785360503
      ],
      [
        "or",
        -10.13957458463974
      ],
      [
        "업무의",
        -10.139706458515937
      ],
      [
        " 가능",
        -10.139985488181164
      ],
      [
        "공장",
        -10.140462646859865
      ],
      [
        "재산의",
        -10.14049448732944
      ],
      [
        " D",
        -10.140537691015773
      ],
      [
        "계획의",
        -10.140680804317476
      ],
      [
        " 윤",
        -10.1410198856095
      ],
      [
        " 제외한다.",
        -10.141301073592528
      ],
      [
        "보이지",
        -10.141510118532906
      ],
      [
        " 없음",
        -10.141792011862496
      ],
      [
        " 2009년",
        -10.14258907173932
      ],
      [
        " 일본",
        -10.142810855345736
      ],
      [
        " 횡령",
        -10.143665945148571
      ],
      [
        " 의미하는",
        -10.144359409175422
      ],
      [
        " 선고한",
        -10.144361847572675
      ],
      [
        " 있으며",
        -10.144660983878651
      ],
      [
        "교통",
        -10.145066547281925
      ],
      [
        " 수령한",
        -10.145476924641104
      ],
      [
        "면허",
        -10.145523110425088
      ],
      [
        " 않도록",
        -10.145552977036951
      ],
      [
        "시스템",
        -10.145661565565074
      ],
      [
        " 낮은",
        -10.14615341346842
      ],
      [
        " 제61조",
        -10.146928037911858
      ],
      [
        "제1호",
        -10.147069200597876
      ],
      [
        " 것이다",
        -10.147165745949197
      ],
      [
        " 가맹금",
        -10.148062842808743
      ],
      [
        " 서면으로",
        -10.148220935809428
      ],
      [
        " 종사",
        -10.14888066679416
      ],
      [
        "있는",
        -10.148992462138052
      ],
      [
        " 사진",
        -10.149578948838624
      ],
      [
        " 93",
        -10.149698849590044
      ],
      [
        " 임대차계약",
        -10.150044635982596
      ],
      [
        " 등록된",
        -10.150373086783349
      ],
      [
        " 회피",
        -10.150917464590998
      ],
      [
        " 제55조",
        -10.150996049134704
      ],
      [
        " 다툼",
        -10.15141798875278
      ],
      [
        " 도입",
        -10.151488242201976
      ],
      [
        " 40",
        -10.151693305447308
      ],
      [
        "보증",
        -10.151711838466897
      ],
      [
        " 제안",
        -10.15176570487622
      ],
      [
        " 소론",
        -10.152056214813808
      ],
      [
        " 부족하고",
        -10.153964564831004
      ],
      [
        " 22",
        -10.154018411001594
      ],
      [
        " 해임",
        -10.154870069268668
      ],
      [
        " 집회",
        -10.155529707515257
      ],
      [
        "사고",
        -10.155966537946895
      ],
      [
        "능력",
        -10.156655981058377
      ],
      [
        " 결정에",
        -10.156663469756772
      ],
      [
        " 여기서",
        -10.157440182172843
      ],
      [
        " 처음",
        -10.157651848960008
      ],
      [
        "제3항에",
        -10.157895820591106
      ],
      [
        " 원심판결에",
        -10.157909232286418
      ],
      [
        "함과",
        -10.157933834387324
      ],
      [
        "지연손해금을",
        -10.1581926608882
      ],
      [
        " 그가",
        -10.158331610777736
      ],
      [
        " 받게",
        -10.158341770896945
      ],
      [
        " 기술적",
        -10.158403409324698
      ],
      [
        " 않으므로",
        -10.15859295180429
      ],
      [
        " 제2호의",
        -10.159324158507449
      ],
      [
        " 100",
        -10.159537417830911
      ],
      [
        " 있다면",
        -10.159744195129798
      ],
      [
        " 한정한다)",
        -10.160256076169466
      ],
      [
        "공정화에",
        -10.160386226474822
      ],
      [
        " 유족",
        -10.160757840794927
      ],
      [
        "술",
        -10.161129488237648
      ],
      [
        " M",
        -10.161175701298584
      ],
      [
        "사회",
        -10.161273174765975
      ],
      [
        "관계가",
        -10.161906911573748
      ],
      [
        " 일부개정",
        -10.161966668297287
      ],
      [
        "요건",
        -10.162197220668958
      ],
      [
        "사유",
        -10.162297855339624
      ],
      [
        " 사용자",
        -10.162377992434536
      ],
      [
        "시킨",
        -10.162435585127398
      ],
      [
        " 존부",
        -10.162832889950415
      ],
      [
        "되므로",
        -10.162983873922178
      ],
      [
        " 용이",
        -10.163070634228315
      ],
      [
        "라도",
        -10.163132941834276
      ],
      [
        "되었다",
        -10.163200321354514
      ],
      [
        " 2010",
        -10.163266020318575
      ],
      [
        " 온라인",
        -10.163768137177184
      ],
      [
        " 장애인",
        -10.164173929595613
      ],
      [
        " 제1호증의",
        -10.164881614842846
      ],
      [
        " 특수",
        -10.165056147750384
      ],
      [
        " 2016년",
        -10.16544332570946
      ],
      [
        " 실시하는",
        -10.165628893892745
      ],
      [
        "본부",
        -10.16583099969119
      ],
      [
        " 포장",
        -10.165848624090929
      ],
      [
        "이거나",
        -10.166084424112428
      ],
      [
        "행정기관의",
        -10.166094658865456
      ],
      [
        "비를",
        -10.166331988123138
      ],
      [
        " 11,",
        -10.166516767283625
      ],
      [
        " 투찰",
        -10.166684225738123
      ],
      [
        " 기본적",
        -10.166999825961616
      ],
      [
        "공소사실을",
        -10.16810706373128
      ],
      [
        " 가액",
        -10.168290943141873
      ],
      [
        " 협조",
        -10.168417615021388
      ],
      [
        "금액은",
        -10.168526115438198
      ],
      [
        " 계약금",
        -10.1689334880744
      ],
      [
        " 의뢰",
        -10.168961829932377
      ],
      [
        " 하나로",
        -10.170015542874363
      ],
      [
        " 상당하는",
        -10.17083460196592
      ],
      [
        " 뿐,",
        -10.170983345392989
      ],
      [
        " 경제",
        -10.171175569260996
      ],
      [
        " 진실",
        -10.171802537687809
      ],
      [
        " 범죄일람표",
        -10.172184509071313
      ],
      [
        " 특",
        -10.172355414695293
      ],
      [
        " 살펴본",
        -10.17238049918134
      ],
      [
        " 가정",
        -10.172615836723333
      ],
      [
        " 전액",
        -10.172938855487873
      ],
      [
        " 이사회",
        -10.17295450878074
      ],
      [
        "청장",
        -10.174668168477613
      ],
      [
        "문화",
        -10.174671557325109
      ],
      [
        " 조례",
        -10.175108653909366
      ],
      [
        " 경정",
        -10.175197001984053
      ],
      [
        "망인의",
        -10.17551564697246
      ],
      [
        " 세액",
        -10.175524143362816
      ],
      [
        "i",
        -10.17725367872272
      ],
      [
        " 표준",
        -10.177684835475787
      ],
      [
        " 황",
        -10.177766135065768
      ],
      [
        " 마치",
        -10.177900403875778
      ],
      [
        "기재",
        -10.178278033769576
      ],
      [
        " 못하는",
        -10.178355459784546
      ],
      [
        " 할지라도",
        -10.1790959876486
      ],
      [
        "즉,",
        -10.179791535814758
      ],
      [
        " 피의자신문조서",
        -10.180050499299742
      ],
      [
        "4)",
        -10.18041174147385
      ],
      [
        " 제3호에",
        -10.180468345729768
      ],
      [
        " 너무",
        -10.180471799272487
      ],
      [
        " 금액으로",
        -10.180477420301946
      ],
      [
        " 청탁",
        -10.180801302474258
      ],
      [
        " 직",
        -10.180879773704856
      ],
      [
        "기로",
        -10.180954461430147
      ],
      [
        " 열",
        -10.18155589078955
      ],
      [
        " 소유권이전등기가",
        -10.182379678247688
      ],
      [
        " 않았",
        -10.182720838861842
      ],
      [
        "과징금을",
        -10.18276411880266
      ],
      [
        " 신청한",
        -10.18286146161756
      ],
      [
        " 현저한",
        -10.1831898334437
      ],
      [
        " 피의자",
        -10.183538817823148
      ],
      [
        " 아직",
        -10.183665372200997
      ],
      [
        " 항공기",
        -10.184279950452238
      ],
      [
        " 것임",
        -10.185261482799971
      ],
      [
        " 위법하다.",
        -10.185615789874651
      ],
      [
        "합의를",
        -10.186609519918171
      ],
      [
        "1조",
        -10.186809713315618
      ],
      [
        ")은",
        -10.1868349186778
      ],
      [
        "피해를",
        -10.18709876527603
      ],
      [
        "바로",
        -10.187258994860166
      ],
      [
        " 있었다",
        -10.187376037731148
      ],
      [
        "계약에",
        -10.187775596485228
      ],
      [
        " 3개",
        -10.189208641817412
      ],
      [
        " 토",
        -10.190126246943317
      ],
      [
        " 마",
        -10.190434897710348
      ],
      [
        " 행정청",
        -10.190674630483368
      ],
      [
        "상품의",
        -10.191545019899031
      ],
      [
        "되었으나",
        -10.191548505830806
      ],
      [
        "곡",
        -10.191586528730165
      ],
      [
        " 임직원",
        -10.191729816948056
      ],
      [
        " 해산",
        -10.192732053988118
      ],
      [
        "생산",
        -10.193341798368548
      ],
      [
        " 다소",
        -10.193691733032813
      ],
      [
        " 권리가",
        -10.1945340276354
      ],
      [
        " 정보공개서",
        -10.194580513776495
      ],
      [
        " 24",
        -10.194775414490069
      ],
      [
        "과실로",
        -10.19480480264418
      ],
      [
        " 배척한",
        -10.19534553972491
      ],
      [
        " 23",
        -10.195364550560056
      ],
      [
        " 보정",
        -10.195564060987056
      ],
      [
        "증서",
        -10.195602554502392
      ],
      [
        "사가",
        -10.19580479553284
      ],
      [
        "호증),",
        -10.196217897934323
      ],
      [
        " 대하여도",
        -10.1962345727953
      ],
      [
[...]
